{
  "!": 1,
  "!!": 26652,
  "!\"": 8476,
  "!\"\"": 36270,
  "!\",": 14787,
  "!\".": 17130,
  "!,": 20282,
  "!.": 32055,
  "\"": 2,
  "\"\"": 2411,
  "\"\")": 22041,
  "\"\"),": 26033,
  "\"\").": 27933,
  "\"\",": 3622,
  "\"\".": 3555,
  "\"\";": 41360,
  "\"'": 25274,
  "\"(": 11431,
  "\"(\"": 21290,
  "\")": 1766,
  "\"),": 2298,
  "\").": 3053,
  "\"):": 39673,
  "\");": 24733,
  "\",": 474,
  "\",\"": 21799,
  "\"-": 17449,
  "\".": 551,
  "\".\"": 14693,
  "\"..": 47803,
  "\"...": 38462,
  "\"/": 26360,
  "\"/\"": 33863,
  "\":": 6391,
  "\";": 4685,
  "\"<": 33942,
  "\"</": 35438,
  "\">": 12624,
  "\"></": 22299,
  "\"]": 32772,
  "\"|": 37823,
  "\"Â»": 48071,
  "\"Â»,": 49381,
  "\"Â».": 42526,
  "\"âĢľ": 40416,
  "\"âĢĿ": 21883,
  "\"âĢĿ,": 27705,
  "\"âĢĿ.": 28551,
  "#": 3,
  "$": 4,
  "%": 5,
  "%)": 8236,
  "%),": 8191,
  "%).": 12054,
  "%);": 31615,
  "%,": 7779,
  "%.": 6877,
  "%;": 34503,
  "&": 6,
  "'": 7,
  "'\"": 32524,
  "'\",": 45921,
  "'\".": 28807,
  "')": 29047,
  "'),": 41202,
  "',": 8056,
  "'.": 11066,
  "'d": 47423,
  "'ll": 24126,
  "'m": 16417,
  "'re": 25842,
  "'s": 2309,
  "'t": 8499,
  "'ve": 37983,
  "(": 8,
  "(\"": 19579,
  "()": 48282,
  "(...)": 42470,
  ")": 9,
  ")\"": 7390,
  ")\",": 11238,
  ")\".": 15205,
  "))": 29691,
  ")),": 50093,
  ")).": 46852,
  "),": 521,
  ")-": 37457,
  ").": 608,
  ").\"": 31642,
  ")/": 46031,
  "):": 5835,
  ");": 3318,
  ")<": 24717,
  ")|": 24397,
  "*": 10,
  "**": 34808,
  "+": 11,
  "++": 31786,
  "+,": 39533,
  ",": 12,
  ",\"": 5568,
  ",<": 48656,
  "-": 13,
  "-\"": 20556,
  "-,": 36853,
  "--": 14431,
  "----": 31760,
  ".": 14,
  ".\"": 1559,
  ".\"\"": 9322,
  ".\",": 19835,
  ".\".": 24205,
  ".'": 40624,
  ".(": 35223,
  ".)": 7599,
  ".),": 13204,
  ".).": 14271,
  ".,": 3378,
  ".-": 43249,
  "..": 1353,
  "...": 2621,
  "...\"": 18023,
  "...\",": 49748,
  "...\".": 49978,
  "...)": 10873,
  "...]": 9059,
  "./": 24655,
  ".:": 17966,
  ".;": 21388,
  ".<": 10454,
  ".</": 40031,
  ".[": 47789,
  ".Â°": 20619,
  ".Â»": 30296,
  ".âĢĿ": 11984,
  ".âĢĿ\"": 46212,
  "/": 15,
  "/,": 40260,
  "//": 8586,
  "0": 16,
  "00": 596,
  "000": 1481,
  "0000": 44410,
  "001": 48530,
  "007": 42823,
  "01": 8641,
  "02": 9187,
  "03": 8830,
  "04": 9305,
  "05": 8046,
  "06": 9211,
  "07": 8576,
  "08": 8494,
  "09": 8093,
  "1": 17,
  "10": 1957,
  "100": 7797,
  "1000": 37517,
  "101": 24828,
  "102": 37293,
  "103": 41646,
  "104": 36719,
  "105": 35231,
  "106": 41056,
  "107": 40793,
  "108": 44121,
  "109": 41754,
  "11": 2580,
  "110": 29512,
  "111": 35543,
  "112": 37647,
  "113": 44864,
  "114": 35983,
  "115": 35781,
  "116": 29097,
  "117": 35821,
  "118": 33364,
  "119": 44963,
  "12": 2378,
  "120": 26653,
  "122": 49746,
  "123": 43316,
  "124": 47974,
  "125": 39788,
  "127": 47554,
  "13": 2672,
  "130": 34068,
  "135": 46134,
  "14": 2505,
  "140": 39819,
  "15": 2184,
  "150": 25880,
  "153": 46561,
  "16": 2413,
  "160": 39061,
  "17": 2259,
  "18": 1690,
  "180": 39290,
  "1822": 48382,
  "1834": 48310,
  "1859": 49554,
  "1864": 49057,
  "1865": 42490,
  "1868": 49496,
  "1870": 42639,
  "1871": 49058,
  "1878": 42775,
  "1880": 50047,
  "1881": 48104,
  "1882": 49409,
  "1883": 49612,
  "1884": 48760,
  "1885": 41797,
  "1886": 48618,
  "1888": 48548,
  "1889": 38594,
  "1890": 43121,
  "1891": 43794,
  "1892": 46493,
  "1893": 46750,
  "1894": 45883,
  "1895": 41458,
  "1896": 44317,
  "1897": 46818,
  "1898": 41459,
  "1899": 42201,
  "19": 918,
  "190": 47964,
  "1900": 39090,
  "1901": 43311,
  "1902": 43010,
  "1903": 43468,
  "1904": 41501,
  "1905": 41638,
  "1906": 45380,
  "1907": 41178,
  "1908": 38213,
  "1909": 39900,
  "1910": 33320,
  "1911": 32597,
  "1912": 36120,
  "1913": 37382,
  "1914": 29380,
  "1915": 33063,
  "1916": 37793,
  "1917": 38589,
  "1918": 28282,
  "1919": 32316,
  "1920": 29604,
  "1921": 33289,
  "1922": 34758,
  "1923": 36632,
  "1924": 33901,
  "1925": 34324,
  "1926": 31987,
  "1927": 34010,
  "1928": 34857,
  "1929": 30130,
  "1930": 29400,
  "1931": 31066,
  "1932": 35250,
  "1933": 32021,
  "1934": 33109,
  "1935": 33471,
  "1936": 29227,
  "1937": 30648,
  "1938": 32006,
  "1939": 26217,
  "1940": 30768,
  "1941": 33028,
  "1942": 33723,
  "1943": 32404,
  "1944": 33766,
  "1945": 24036,
  "1946": 31772,
  "1947": 30978,
  "1948": 28679,
  "1949": 29949,
  "195": 6892,
  "1950": 28855,
  "1951": 31563,
  "1952": 31654,
  "1953": 26237,
  "1954": 30441,
  "1955": 28693,
  "1956": 29202,
  "1957": 29014,
  "1958": 25722,
  "1959": 27475,
  "196": 5366,
  "1960": 25281,
  "1961": 27012,
  "1962": 25543,
  "1963": 25485,
  "1964": 22759,
  "1965": 25034,
  "1966": 25261,
  "1967": 23183,
  "1968": 23784,
  "1969": 23658,
  "197": 4415,
  "1970": 22263,
  "1971": 23883,
  "1972": 23808,
  "1973": 21804,
  "1974": 22002,
  "1975": 21128,
  "1976": 21946,
  "1977": 22527,
  "1978": 21667,
  "1979": 19849,
  "198": 3724,
  "1980": 20352,
  "1981": 21170,
  "1982": 20384,
  "1983": 19247,
  "1984": 20232,
  "1985": 17446,
  "1986": 19555,
  "1987": 17778,
  "1988": 18787,
  "1989": 16976,
  "199": 2912,
  "1990": 16923,
  "1991": 16728,
  "1992": 15737,
  "1993": 16814,
  "1994": 16093,
  "1995": 14584,
  "1996": 15028,
  "1997": 14659,
  "1998": 14105,
  "1999": 13189,
  "2": 18,
  "20": 1234,
  "200": 2111,
  "2000": 10887,
  "2001": 12097,
  "2002": 11994,
  "2003": 11959,
  "2004": 11524,
  "2005": 11313,
  "2006": 10845,
  "2007": 11085,
  "2008": 10541,
  "2009": 10469,
  "2010": 10453,
  "2011": 9396,
  "2012": 11683,
  "2013": 11860,
  "2014": 12517,
  "2015": 12945,
  "2016": 13971,
  "2017": 15891,
  "2018": 18226,
  "2019": 19357,
  "2020": 33185,
  "21": 4621,
  "210": 41258,
  "22": 4447,
  "23": 4574,
  "230": 47170,
  "235": 48696,
  "24": 4618,
  "25": 3974,
  "250": 28434,
  "26": 5126,
  "27": 5037,
  "28": 5073,
  "29": 5378,
  "3": 19,
  "30": 3067,
  "300": 15242,
  "31": 6769,
  "32": 7060,
  "320": 36976,
  "33": 6409,
  "330": 46223,
  "34": 6580,
  "35": 5705,
  "350": 38793,
  "36": 6291,
  "360": 46163,
  "37": 5993,
  "38": 6243,
  "380": 41386,
  "39": 6565,
  "4": 20,
  "40": 3746,
  "400": 16772,
  "41": 7482,
  "42": 7415,
  "43": 7647,
  "44": 6958,
  "45": 5501,
  "450": 38950,
  "46": 7046,
  "47": 6172,
  "48": 6038,
  "49": 7055,
  "5": 21,
  "50": 2764,
  "500": 8366,
  "51": 10064,
  "52": 9877,
  "53": 9646,
  "54": 9439,
  "55": 6271,
  "56": 9845,
  "57": 10287,
  "58": 9072,
  "59": 9050,
  "6": 22,
  "60": 4082,
  "600": 19566,
  "61": 9593,
  "62": 9018,
  "63": 9532,
  "64": 8736,
  "65": 7612,
  "66": 7933,
  "67": 8397,
  "68": 8567,
  "69": 8876,
  "7": 23,
  "70": 5364,
  "700": 22844,
  "71": 9431,
  "72": 9004,
  "73": 10137,
  "74": 9575,
  "75": 6583,
  "750": 45793,
  "76": 7427,
  "77": 7728,
  "78": 7558,
  "79": 8795,
  "8": 24,
  "80": 4684,
  "800": 18894,
  "81": 9803,
  "82": 9838,
  "83": 9508,
  "84": 9595,
  "85": 6665,
  "86": 7180,
  "87": 8388,
  "88": 8013,
  "89": 7315,
  "9": 25,
  "90": 5690,
  "900": 28552,
  "91": 10916,
  "92": 9915,
  "93": 10969,
  "94": 10583,
  "95": 7781,
  "96": 10158,
  "97": 9870,
  "98": 9283,
  "99": 6878,
  ":": 26,
  ":\"": 13538,
  "://": 8963,
  ";": 27,
  ";\"": 18506,
  ";\"|": 33647,
  "<": 28,
  "</": 5667,
  "<|endoftext|>": 0,
  "=": 29,
  "=\"": 7380,
  ">": 30,
  ">\"": 14449,
  ">\"</": 19987,
  ">*": 28759,
  ">*</": 31885,
  ">,": 37489,
  ">.": 30020,
  "><": 28725,
  "></": 32502,
  "?": 31,
  "?\"": 11062,
  "?\",": 18685,
  "?\".": 22596,
  "?)": 37005,
  "?),": 46853,
  "?,": 48072,
  "@": 32,
  "A": 33,
  "AA": 20591,
  "AB": 11809,
  "ABC": 38025,
  "AC": 7555,
  "ACE": 40847,
  "AD": 11665,
  "AF": 9899,
  "AFTA": 31656,
  "AI": 46466,
  "AL": 10029,
  "AM": 8824,
  "AN": 9379,
  "AP": 8945,
  "AR": 5842,
  "ARA": 43326,
  "ARC": 41971,
  "ARD": 37676,
  "ARIA": 44871,
  "ART": 28613,
  "AS": 4160,
  "ASA": 28370,
  "ASE": 46966,
  "ASP": 29861,
  "AST": 48772,
  "AT": 11701,
  "ATO": 40486,
  "Ab": 13753,
  "Abaixo": 26198,
  "Abra": 39440,
  "Ac": 9786,
  "Acad": 25783,
  "Academia": 34806,
  "Ach": 44397,
  "Acredita": 24752,
  "Action": 27546,
  "Actualmente": 27223,
  "Ad": 7908,
  "Adam": 30561,
  "Ade": 42892,
  "Administ": 38559,
  "Ado": 44895,
  "Adventu": 39227,
  "Af": 20685,
  "Afonso": 40768,
  "Afric": 32833,
  "Africana": 47225,
  "Ag": 24127,
  "Agora": 22110,
  "Ah": 33711,
  "Ai": 49456,
  "Ainda": 6716,
  "Air": 29156,
  "Ak": 35439,
  "Al": 1793,
  "Ala": 39651,
  "Alan": 38318,
  "Albert": 46442,
  "Alberto": 40468,
  "Ale": 14166,
  "Alemanha": 28668,
  "Alex": 14912,
  "Alexand": 23489,
  "Alexander": 42745,
  "Alexandre": 29899,
  "Algu": 5275,
  "Algumas": 11301,
  "Alguns": 7563,
  "Ali": 30980,
  "Alice": 29311,
  "Alien": 48106,
  "All": 12397,
  "Alma": 38854,
  "Alto": 39125,
  "AlÃ©m": 4491,
  "Am": 11820,
  "Ama": 28784,
  "Aman": 37086,
  "Amaz": 30542,
  "Amb": 39580,
  "Ambos": 36585,
  "Americ": 5313,
  "America": 41164,
  "American": 13132,
  "Americana": 12704,
  "Americano": 13472,
  "Americanos": 20234,
  "Amor": 21554,
  "AmÃ©rica": 30384,
  "An": 5889,
  "Ana": 14643,
  "And": 10232,
  "Andrea": 48487,
  "Andrew": 48050,
  "AndrÃ©": 30442,
  "Ang": 14335,
  "Angel": 34296,
  "Angelo": 42701,
  "Ann": 38984,
  "Anna": 25782,
  "Anne": 40479,
  "Ano": 28399,
  "Anos": 31030,
  "Ans": 45419,
  "Ant": 8035,
  "Anteriormente": 44626,
  "Antes": 8313,
  "Antiga": 44722,
  "Anto": 46096,
  "Antonio": 32860,
  "AntÃ³nio": 25334,
  "AntÃ´nio": 26286,
  "Ao": 4018,
  "Aos": 12387,
  "Ap": 1823,
  "Apare": 32946,
  "Apenas": 24290,
  "Apesar": 4671,
  "Apo": 28843,
  "Apresent": 47593,
  "Apresenta": 39240,
  "Apro": 39983,
  "ApÃ³s": 2482,
  "Aqu": 44052,
  "Aqui": 24460,
  "Ar": 3560,
  "Ara": 17819,
  "Aranha": 18072,
  "Arc": 40235,
  "Arch": 35677,
  "Are": 47944,
  "Argentina": 34598,
  "Arqu": 37708,
  "Art": 18610,
  "Arte": 27646,
  "Artes": 29722,
  "Arthur": 27122,
  "Artigo": 35062,
  "Artista": 47390,
  "Arts": 42551,
  "As": 1317,
  "Ash": 38901,
  "Ass": 5650,
  "Assassin": 47699,
  "Assim": 7359,
  "Asso": 15598,
  "AssociaÃ§Ã£o": 18892,
  "At": 15451,
  "Ata": 48283,
  "Ate": 43497,
  "AtravÃ©s": 21969,
  "Atualizado": 48432,
  "Atualmente": 6763,
  "Atuou": 40336,
  "AtÃ©": 8280,
  "Au": 14432,
  "Augus": 24524,
  "Augusto": 42661,
  "Auto": 25287,
  "Autor": 34880,
  "Av": 34386,
  "Avenida": 37332,
  "Az": 25503,
  "B": 34,
  "BA": 4920,
  "BAL": 49756,
  "BB": 18224,
  "BBC": 48507,
  "BC": 3789,
  "BE": 35916,
  "BI": 13904,
  "BL": 37170,
  "BM": 36736,
  "BN": 16501,
  "BO": 14029,
  "BOL": 28359,
  "BR": 14458,
  "BRA": 40032,
  "BS": 6278,
  "BSD": 44554,
  "BT": 6300,
  "Ba": 5099,
  "Baby": 23452,
  "Back": 24832,
  "Bad": 20824,
  "Bag": 38998,
  "Bahia": 38603,
  "Bal": 17402,
  "Ball": 31735,
  "Ban": 18686,
  "Banco": 43238,
  "Band": 25442,
  "Banda": 47322,
  "Bang": 41478,
  "Bapt": 32153,
  "Baptiste": 33522,
  "Bar": 8765,
  "Barbera": 49636,
  "Barcel": 49298,
  "Barra": 45774,
  "Bas": 19700,
  "Base": 28507,
  "Bat": 17171,
  "Batalha": 34045,
  "Batman": 25904,
  "Battle": 34412,
  "Bay": 29708,
  "Be": 7121,
  "Beat": 29153,
  "Beau": 24542,
  "Beautiful": 35192,
  "Bei": 45608,
  "Bel": 18341,
  "Belo": 38620,
  "Bem": 30337,
  "Ben": 18353,
  "Benz": 32773,
  "Ber": 17456,
  "Bern": 30159,
  "Best": 23209,
  "Bet": 27812,
  "Bi": 23913,
  "Bia": 47525,
  "Biblioteca": 46927,
  "Big": 16237,
  "Bill": 6033,
  "Billboard": 6703,
  "Billy": 49630,
  "Bio": 36238,
  "Bir": 30996,
  "Bis": 36657,
  "Bissau": 29797,
  "Bl": 22989,
  "Bla": 48073,
  "Black": 14185,
  "Ble": 34526,
  "Blo": 19753,
  "Blood": 35018,
  "Blue": 27198,
  "Bo": 6251,
  "Boa": 33035,
  "Bob": 33167,
  "Bol": 28358,
  "Bom": 29033,
  "Bon": 31912,
  "Book": 42971,
  "Bor": 34668,
  "Born": 27538,
  "Bos": 31015,
  "Boston": 40673,
  "Bou": 43878,
  "Box": 46451,
  "Boy": 39426,
  "Br": 29692,
  "Bra": 12688,
  "Brad": 47594,
  "Branc": 33406,
  "Bras": 9886,
  "Brasil": 13369,
  "Brasile": 33075,
  "BrasÃŃlia": 41289,
  "Bre": 6803,
  "Break": 38667,
  "Bretanha": 7968,
  "Bri": 21610,
  "Brian": 39353,
  "Brien": 28925,
  "Brig": 39581,
  "Brit": 31660,
  "British": 46787,
  "Bro": 14973,
  "Broad": 44727,
  "Brown": 41779,
  "Bru": 21640,
  "Bruno": 43240,
  "Bu": 12904,
  "Bud": 49941,
  "Buenos": 47771,
  "Bul": 40141,
  "Bur": 23867,
  "Bus": 26398,
  "But": 31098,
  "By": 49457,
  "C": 35,
  "CA": 4405,
  "CAA": 28035,
  "CACAF": 39566,
  "CAF": 34330,
  "CAM": 46636,
  "CAP": 32718,
  "CAR": 27170,
  "CB": 27854,
  "CBN": 39405,
  "CC": 13851,
  "CD": 14984,
  "CE": 9011,
  "CF": 43609,
  "CH": 17645,
  "CI": 10351,
  "CL": 47723,
  "CM": 42088,
  "CN": 21446,
  "CO": 5264,
  "COM": 24550,
  "CON": 28800,
  "CP": 16044,
  "CR": 23376,
  "CS": 22352,
  "CT": 20890,
  "CV": 44627,
  "Ca": 3223,
  "Cabe": 35416,
  "Cada": 13687,
  "Cal": 12320,
  "Calif": 29973,
  "CalifÃ³rnia": 49164,
  "Call": 26676,
  "Cam": 8115,
  "Caminho": 39520,
  "Camp": 20795,
  "Campeonato": 29316,
  "CampeÃ£o": 28169,
  "Campinas": 48500,
  "Campo": 30352,
  "Campos": 46573,
  "Can": 10805,
  "CanadÃ¡": 48490,
  "Canal": 40376,
  "Cand": 36790,
  "Cant": 37612,
  "Canto": 44228,
  "CanÃ§Ã£o": 35131,
  "Cap": 13343,
  "Capa": 36396,
  "Capital": 33478,
  "CapitÃ£o": 36695,
  "Car": 4874,
  "Cara": 21727,
  "Caracter": 41569,
  "Card": 46467,
  "Care": 44521,
  "Carl": 38365,
  "Carlo": 46906,
  "Carlos": 15288,
  "Carol": 33238,
  "Carolina": 49786,
  "Carta": 30820,
  "Cas": 5714,
  "Casa": 14235,
  "Caso": 29187,
  "Casou": 17773,
  "Cass": 35939,
  "Castelo": 36198,
  "Cat": 34809,
  "Categoria": 11606,
  "Caval": 30253,
  "Ce": 21200,
  "Cel": 30510,
  "Cele": 35658,
  "Cem": 48876,
  "Cent": 24597,
  "Central": 41525,
  "Centro": 18000,
  "Cer": 15442,
  "Cerca": 24834,
  "Ch": 4563,
  "Cha": 12372,
  "Chal": 49563,
  "Cham": 26399,
  "Chan": 33712,
  "Char": 14033,
  "Charles": 23145,
  "Charlie": 43140,
  "Che": 12538,
  "Chefe": 36693,
  "Chegou": 38227,
  "Cher": 40864,
  "Chi": 30315,
  "Chicago": 24635,
  "Chico": 41369,
  "Child": 48917,
  "Chin": 48394,
  "China": 36225,
  "Cho": 28173,
  "Chris": 34657,
  "Christ": 22560,
  "Christian": 41570,
  "Christo": 39867,
  "Christopher": 49251,
  "Chu": 33700,
  "Ci": 42278,
  "Cidad": 46721,
  "Cidade": 16794,
  "Cin": 43712,
  "Cinco": 31568,
  "Cine": 36075,
  "Cinema": 37564,
  "Cir": 22809,
  "City": 32013,
  "Cl": 7448,
  "Cla": 19913,
  "Clar": 48329,
  "Class": 25359,
  "Classe": 49091,
  "Claude": 39576,
  "Cle": 28741,
  "Clo": 44098,
  "Cloud": 38287,
  "Club": 37087,
  "Clube": 29241,
  "Clubes": 40066,
  "ClÃ¡u": 42651,
  "Co": 1887,
  "Coburgo": 31353,
  "Col": 9746,
  "Cola": 20922,
  "Cole": 30228,
  "Colo": 32995,
  "Columb": 42020,
  "ColÃ©gio": 43034,
  "Com": 2287,
  "Come": 11444,
  "ComeÃ§ou": 19295,
  "ComissÃ£o": 34096,
  "Como": 3542,
  "Comp": 9665,
  "Companhia": 31977,
  "Comple": 43139,
  "Compos": 34635,
  "Con": 4334,
  "Conc": 20981,
  "Conclu": 37644,
  "Conde": 46054,
  "Conf": 29940,
  "Conforme": 19046,
  "Cong": 49032,
  "Conhecido": 43857,
  "Connell": 49753,
  "Connor": 39716,
  "Cons": 7531,
  "Conselho": 29745,
  "Considera": 17578,
  "Considerado": 35746,
  "Considerando": 35015,
  "Considere": 44083,
  "Constitu": 41287,
  "Constru": 29122,
  "Cont": 8138,
  "Conta": 26843,
  "Conte": 46130,
  "Continu": 35214,
  "Contos": 47331,
  "Contra": 28333,
  "Contudo": 18388,
  "Coorden": 49341,
  "Copa": 26594,
  "Cor": 11794,
  "Cora": 48001,
  "CoraÃ§Ã£o": 38432,
  "Coronel": 39477,
  "Corpo": 36478,
  "Corre": 23175,
  "Correio": 31959,
  "Cos": 26481,
  "Costa": 46937,
  "Cou": 31935,
  "Count": 38494,
  "Cr": 21659,
  "Cra": 19396,
  "Craft": 48499,
  "Crazy": 37423,
  "Cres": 48139,
  "Cri": 17691,
  "Cria": 47424,
  "Criada": 37814,
  "Criado": 35782,
  "Crise": 40725,
  "Crist": 28247,
  "Cristo": 39935,
  "Cro": 33407,
  "Cru": 40497,
  "Cruz": 18194,
  "Cry": 31213,
  "CrÃ©ditos": 43610,
  "CrÃ´nica": 43762,
  "CrÃŃ": 41670,
  "Cu": 17990,
  "Cube": 34769,
  "Cul": 49708,
  "Cultura": 46854,
  "Cur": 30665,
  "Curi": 30103,
  "Curitiba": 48576,
  "Cy": 25275,
  "CÃ¢mara": 45922,
  "CÃ©sar": 48074,
  "CÃ³digo": 44964,
  "D": 36,
  "DA": 9791,
  "DB": 5668,
  "DC": 12978,
  "DD": 24740,
  "DE": 7723,
  "DEM": 35969,
  "DES": 43403,
  "DF": 16831,
  "DH": 21809,
  "DI": 17336,
  "DJ": 39731,
  "DL": 37689,
  "DM": 23477,
  "DN": 14159,
  "DNA": 37565,
  "DO": 17346,
  "DOS": 33734,
  "DP": 16355,
  "DR": 20646,
  "DS": 10648,
  "DT": 14310,
  "DU": 47526,
  "DVD": 32056,
  "Da": 5514,
  "Dada": 40726,
  "Dado": 35624,
  "Dados": 29321,
  "Daily": 32438,
  "Dal": 33365,
  "Dame": 41701,
  "Dan": 15175,
  "Dance": 36037,
  "Dancing": 43879,
  "Daniel": 23499,
  "Dar": 25641,
  "Dark": 28553,
  "Das": 22383,
  "Data": 35803,
  "David": 18339,
  "Day": 25423,
  "De": 1537,
  "Dead": 29198,
  "Death": 32979,
  "Dec": 19159,
  "Declara": 49444,
  "Decreto": 45783,
  "Ded": 42419,
  "Def": 32187,
  "Deixou": 47171,
  "Del": 23788,
  "Dem": 17920,
  "Democra": 30682,
  "Democrata": 45472,
  "Den": 22384,
  "Denis": 38711,
  "Dentre": 16766,
  "Dentro": 21821,
  "Departamento": 43849,
  "Depois": 3624,
  "Der": 18507,
  "Des": 3630,
  "Desa": 48284,
  "Desde": 5042,
  "Desenvol": 35279,
  "Dessa": 33079,
  "Dest": 47234,
  "Desta": 18158,
  "Deste": 47595,
  "Deu": 29982,
  "Deus": 18871,
  "Deve": 34426,
  "Devido": 9578,
  "Devil": 48171,
  "Dez": 27539,
  "Di": 26898,
  "Dia": 11791,
  "Diante": 33403,
  "Dias": 42179,
  "DicionÃ¡rio": 40678,
  "Dick": 45609,
  "Die": 18984,
  "Difere": 22735,
  "Diferente": 46086,
  "Diferentemente": 40859,
  "Dig": 26847,
  "Digital": 42465,
  "Din": 39486,
  "Dio": 38452,
  "Dir": 37242,
  "Dire": 15626,
  "Direito": 45593,
  "Diretor": 42121,
  "Dirig": 47651,
  "Dis": 14992,
  "Disc": 36176,
  "Disco": 28471,
  "Discovery": 45787,
  "Disney": 36697,
  "Dispu": 33097,
  "Disputou": 46279,
  "Dist": 25039,
  "Distrito": 46088,
  "Div": 21512,
  "Divers": 22765,
  "Diversas": 39531,
  "Diversos": 32796,
  "DivisÃ£o": 48501,
  "Diz": 28064,
  "DiÃ¡rio": 20571,
  "Do": 4413,
  "Doc": 19873,
  "Doctor": 29177,
  "Dog": 49252,
  "Dois": 14222,
  "Dom": 14657,
  "Domin": 24652,
  "Domingo": 36308,
  "Don": 11036,
  "Dona": 32417,
  "Donald": 19183,
  "Donnell": 29897,
  "Doo": 49838,
  "Dor": 48955,
  "Dos": 22723,
  "Dou": 17282,
  "Double": 49155,
  "Doug": 47343,
  "Doutor": 42746,
  "Down": 13463,
  "Dr": 22294,
  "Dra": 14071,
  "Dragon": 21291,
  "Dream": 25784,
  "Du": 8950,
  "Duas": 21833,
  "Ducado": 44204,
  "Duque": 32622,
  "Durante": 3062,
  "Dy": 32525,
  "E": 37,
  "EA": 17045,
  "EB": 21949,
  "EC": 5706,
  "ECT": 48188,
  "ED": 13905,
  "EE": 18145,
  "EEE": 44284,
  "EF": 23118,
  "EG": 26317,
  "EI": 19786,
  "EIRA": 41567,
  "EL": 14048,
  "EM": 15917,
  "EN": 15753,
  "EP": 14324,
  "ER": 5260,
  "ERJ": 22858,
  "ERN": 42313,
  "ERS": 46504,
  "ES": 3420,
  "ESA": 36365,
  "ESC": 25200,
  "ESCO": 14575,
  "ESP": 13448,
  "EST": 33988,
  "ET": 10219,
  "EUA": 19963,
  "EX": 29137,
  "East": 47351,
  "Econ": 41479,
  "Ed": 10516,
  "Editora": 45589,
  "Edu": 20341,
  "Eduardo": 30566,
  "Edward": 38608,
  "Eg": 47527,
  "Eis": 35822,
  "El": 6267,
  "Ela": 8382,
  "Elas": 46164,
  "Ele": 3962,
  "Elec": 30421,
  "Eleito": 40167,
  "Eles": 15706,
  "Eliza": 41467,
  "Elizabeth": 45271,
  "Em": 598,
  "Embora": 5935,
  "Emp": 22432,
  "Empire": 44958,
  "En": 5618,
  "Enc": 13612,
  "Encont": 20608,
  "Encontra": 33404,
  "End": 35102,
  "Eng": 22893,
  "Enquanto": 7170,
  "Ens": 49033,
  "Ent": 25943,
  "Enterprise": 27283,
  "Entertainment": 22422,
  "Entre": 3774,
  "Entretanto": 13418,
  "EntÃ£o": 19889,
  "Ep": 15864,
  "EpisÃ³dio": 30445,
  "Equ": 23834,
  "Equipe": 43936,
  "Er": 17495,
  "Era": 10535,
  "Eric": 42943,
  "Es": 1436,
  "Escol": 39381,
  "Escola": 19084,
  "Escreveu": 39382,
  "Escrito": 49610,
  "Esp": 20325,
  "Espanha": 27381,
  "Espe": 31534,
  "Especial": 44827,
  "Espera": 44421,
  "Esporte": 49402,
  "EspÃŃrito": 49160,
  "Essa": 11064,
  "Essas": 22665,
  "Esse": 13039,
  "Esses": 21911,
  "Esta": 4942,
  "Estado": 25305,
  "Estados": 23448,
  "Estamos": 45181,
  "Estas": 18816,
  "EstaÃ§Ã£o": 41594,
  "Este": 5559,
  "Estes": 16895,
  "Esteve": 47560,
  "Estima": 37101,
  "Estou": 33691,
  "Estra": 48685,
  "Estrada": 39160,
  "Estre": 17541,
  "Estrela": 44952,
  "Estreou": 29496,
  "Estu": 14214,
  "Estudos": 25008,
  "Estudou": 27494,
  "EstÃ¡": 15599,
  "EstÃ¡dio": 43235,
  "EstÃ£o": 49403,
  "Eu": 5442,
  "Euro": 19888,
  "Europa": 39930,
  "Europe": 40371,
  "Ev": 35593,
  "Every": 25610,
  "Everybody": 47934,
  "Ex": 3462,
  "Exemplo": 26208,
  "Exemplos": 28634,
  "Exer": 36837,
  "Exerceu": 44733,
  "Existe": 17777,
  "Existem": 8188,
  "ExposiÃ§Ã£o": 39422,
  "Express": 50065,
  "ExÃ©rcito": 40007,
  "Eye": 49863,
  "F": 38,
  "FA": 4090,
  "FB": 25105,
  "FBEC": 44570,
  "FC": 5458,
  "FE": 37782,
  "FF": 19333,
  "FFSA": 46341,
  "FI": 18424,
  "FL": 7512,
  "FM": 20583,
  "FO": 37728,
  "FOR": 49709,
  "FP": 40769,
  "FS": 18236,
  "Fa": 7009,
  "Fac": 44677,
  "Face": 35615,
  "Faculdade": 42167,
  "Fal": 20846,
  "Faleceu": 20451,
  "Fall": 36948,
  "Fam": 17610,
  "Family": 40210,
  "FamÃŃlia": 28740,
  "Fan": 47475,
  "Fant": 46097,
  "Fantas": 29322,
  "Far": 28296,
  "Farl": 46032,
  "Farlane": 46351,
  "Faz": 29353,
  "Fe": 13270,
  "FederaÃ§Ã£o": 39725,
  "Feira": 27824,
  "Fel": 25339,
  "Fer": 12445,
  "Ferna": 43930,
  "Fernando": 23897,
  "Ferra": 44099,
  "Festa": 32057,
  "Festival": 25312,
  "Fez": 21102,
  "Fi": 26527,
  "Ficou": 42751,
  "Figu": 31236,
  "Figura": 45207,
  "Fil": 7061,
  "Filha": 30241,
  "Filho": 10888,
  "Filipe": 40287,
  "Fin": 35558,
  "Final": 14641,
  "Finalmente": 19948,
  "Fir": 32696,
  "Fire": 31259,
  "First": 39193,
  "Fl": 25106,
  "Fla": 30373,
  "Flash": 39652,
  "Flo": 30061,
  "Flor": 27336,
  "Flores": 41480,
  "Flu": 44053,
  "Fly": 43404,
  "Fo": 9495,
  "Foi": 2704,
  "Fol": 17725,
  "Folha": 23516,
  "Fonte": 18159,
  "For": 7611,
  "Fora": 30104,
  "Foram": 15497,
  "Forbes": 39139,
  "Force": 42973,
  "Fore": 37884,
  "Forever": 49376,
  "Forma": 29034,
  "Formado": 30482,
  "Formou": 34359,
  "Fortaleza": 42033,
  "Forte": 46663,
  "ForÃ§a": 39337,
  "Four": 43154,
  "Fox": 42321,
  "Fra": 26329,
  "Fran": 25424,
  "Franc": 11375,
  "France": 37809,
  "Francisco": 19715,
  "Frank": 23478,
  "FranÃ§a": 24385,
  "FranÃ§ois": 35915,
  "Fre": 13251,
  "Fred": 40770,
  "Freder": 32325,
  "Frederico": 41200,
  "Free": 26677,
  "Frente": 43989,
  "Frequ": 37115,
  "Fri": 26970,
  "Fried": 49581,
  "Friend": 42571,
  "Fro": 25944,
  "From": 37754,
  "Frozen": 43149,
  "Fu": 15097,
  "Full": 47107,
  "Fun": 28808,
  "Fund": 14601,
  "Fundada": 33305,
  "Fundado": 37916,
  "FundaÃ§Ã£o": 34719,
  "FÃ¡": 40377,
  "G": 39,
  "GA": 18079,
  "GB": 17733,
  "GC": 29526,
  "GE": 7323,
  "GF": 43880,
  "GI": 40184,
  "GL": 37279,
  "GM": 48802,
  "GO": 17627,
  "GP": 25029,
  "GR": 41037,
  "GS": 17556,
  "GT": 36881,
  "GU": 45544,
  "GV": 37243,
  "Ga": 7993,
  "Gabri": 29522,
  "Gabriel": 42031,
  "Gal": 20563,
  "Gala": 47108,
  "Game": 22927,
  "Ganhou": 46722,
  "Gaon": 45965,
  "Gar": 24679,
  "Gas": 41259,
  "Gazeta": 44814,
  "Ge": 10665,
  "Gen": 13353,
  "Gene": 32035,
  "General": 20975,
  "George": 24352,
  "Ger": 13394,
  "Geral": 9739,
  "Geralmente": 28412,
  "Germain": 36004,
  "GermÃ¢nico": 23039,
  "Get": 23914,
  "Ghost": 38751,
  "Gi": 46288,
  "Gil": 26072,
  "Gio": 38095,
  "Giovan": 45415,
  "Girl": 32369,
  "Girls": 44965,
  "Give": 41817,
  "Gl": 26600,
  "Glo": 22058,
  "Global": 47468,
  "Globo": 32629,
  "Go": 13133,
  "God": 21795,
  "Goi": 49791,
  "Gol": 27855,
  "Gold": 28360,
  "Golden": 37818,
  "Gon": 37280,
  "Gone": 46352,
  "Good": 20394,
  "Got": 37783,
  "Gota": 35103,
  "Gover": 26451,
  "Gr": 39079,
  "Gra": 5507,
  "Gradu": 39605,
  "GraduaÃ§Ã£o": 29687,
  "Gram": 31661,
  "Gran": 39036,
  "Grand": 19214,
  "Grande": 13206,
  "Grandense": 46274,
  "Grandes": 38646,
  "Grav": 33462,
  "GraÃ§as": 32888,
  "Gre": 16359,
  "Great": 34976,
  "Green": 30386,
  "Greg": 36076,
  "Grey": 39110,
  "Gro": 39936,
  "Gru": 38026,
  "Grupo": 20953,
  "Gu": 6010,
  "Gua": 38621,
  "Guar": 47274,
  "Guer": 42558,
  "Guerra": 20843,
  "Guil": 25332,
  "Guilherme": 29392,
  "Guitar": 36296,
  "Gusta": 41344,
  "Gy": 47050,
  "GÃªn": 49942,
  "H": 40,
  "HA": 18491,
  "HAN": 30160,
  "HC": 21077,
  "HD": 38622,
  "HE": 38752,
  "HF": 17957,
  "HI": 48285,
  "HM": 45674,
  "HO": 21347,
  "HP": 34207,
  "HS": 25299,
  "HT": 31471,
  "Ha": 7674,
  "Hal": 21293,
  "Half": 47467,
  "Hall": 41120,
  "Halo": 22958,
  "Ham": 24907,
  "Han": 33918,
  "Hand": 49526,
  "Happy": 39065,
  "Har": 12828,
  "Hara": 42034,
  "Hard": 31936,
  "Harry": 24338,
  "Havia": 29509,
  "Hay": 45026,
  "He": 8775,
  "Head": 47031,
  "Heart": 28707,
  "Hel": 18567,
  "Helena": 45264,
  "Hell": 41260,
  "Hello": 44522,
  "Hen": 15610,
  "Henri": 44782,
  "Henrique": 27315,
  "Henry": 33053,
  "Her": 13332,
  "Here": 35783,
  "Hero": 31764,
  "Hey": 38083,
  "Hi": 42131,
  "High": 24048,
  "Hip": 23107,
  "Hist": 8984,
  "Historia": 38914,
  "Historicamente": 32560,
  "HistÃ³ria": 14352,
  "HistÃ³rias": 41705,
  "Hit": 34904,
  "Ho": 6545,
  "Hoje": 12596,
  "Hol": 19036,
  "Hollywood": 38747,
  "Hols": 41982,
  "Hom": 44896,
  "Home": 13660,
  "Homem": 19917,
  "Homo": 35006,
  "Hon": 29157,
  "Hop": 26318,
  "Hor": 28844,
  "Hora": 45545,
  "Hos": 35686,
  "Hospital": 47866,
  "Hot": 25266,
  "Hotel": 49913,
  "House": 38295,
  "Houve": 21841,
  "How": 24672,
  "Hu": 16733,
  "Human": 31836,
  "Hungria": 30876,
  "Hy": 23197,
  "Hyper": 42517,
  "Hz": 12354,
  "HÃ¡": 6446,
  "HÃºngaro": 37566,
  "I": 41,
  "IA": 5380,
  "IAA": 21064,
  "IB": 6789,
  "IBGE": 25434,
  "IC": 6418,
  "ICA": 42752,
  "ID": 6324,
  "IDA": 32605,
  "IDE": 34714,
  "IDH": 29490,
  "IDO": 48119,
  "IDS": 21148,
  "IF": 20880,
  "IG": 13319,
  "II": 1153,
  "III": 2984,
  "IIL": 37257,
  "IL": 13390,
  "IM": 12369,
  "IMO": 48055,
  "IN": 7376,
  "INE": 39917,
  "INMET": 48638,
  "IO": 24128,
  "IP": 13168,
  "IR": 18771,
  "IRA": 49792,
  "IS": 6035,
  "ISA": 35455,
  "ISC": 37476,
  "ISS": 43694,
  "IST": 37262,
  "IT": 11087,
  "IV": 9424,
  "IX": 22243,
  "Ia": 37171,
  "Iago": 46716,
  "If": 28232,
  "Igreja": 25361,
  "Il": 13399,
  "Ilha": 33277,
  "Im": 22159,
  "Ima": 38951,
  "Imag": 46098,
  "Imagem": 42707,
  "Imp": 17203,
  "Impa": 25586,
  "Impact": 26615,
  "Imperador": 42125,
  "ImpÃ©rio": 38656,
  "In": 4178,
  "Ina": 37490,
  "Inc": 23355,
  "Ind": 18442,
  "Inde": 28074,
  "India": 41203,
  "Inf": 31854,
  "Infelizmente": 48505,
  "Ing": 19504,
  "Inglaterra": 45727,
  "Ingressou": 42609,
  "Inicia": 43427,
  "Inicialmente": 14688,
  "Iniciou": 19377,
  "Ins": 9237,
  "Institu": 15409,
  "Instituto": 19631,
  "Instru": 46331,
  "Int": 29301,
  "Inte": 18599,
  "Integra": 43039,
  "Inter": 11252,
  "Interna": 22734,
  "International": 24976,
  "Interpre": 49513,
  "Into": 44678,
  "Intyre": 46932,
  "Ir": 18863,
  "IrmÃ£": 43445,
  "Iron": 40584,
  "Is": 7497,
  "Isa": 21103,
  "Isabel": 31910,
  "Israel": 38263,
  "Isso": 19237,
  "Isto": 22169,
  "It": 19281,
  "Ita": 25514,
  "Ital": 34722,
  "Italia": 45414,
  "ItÃ¡lia": 30639,
  "J": 42,
  "JA": 33250,
  "JD": 38096,
  "JG": 42990,
  "JO": 49943,
  "JT": 49864,
  "Ja": 7419,
  "Jac": 27785,
  "Jack": 20310,
  "Jacques": 33098,
  "Jaime": 46262,
  "Jam": 43553,
  "James": 19805,
  "Jan": 29416,
  "Jane": 42279,
  "Japonesa": 48047,
  "JapÃ£o": 42601,
  "Jardim": 37244,
  "Jason": 43713,
  "Jay": 46790,
  "Je": 13252,
  "Jean": 23667,
  "Jeff": 46515,
  "Jer": 32585,
  "Jess": 45794,
  "Jesus": 26749,
  "Jim": 28890,
  "Jimmy": 44785,
  "Jo": 4944,
  "Joa": 29158,
  "Joana": 46907,
  "Joaquim": 34502,
  "Joe": 36725,
  "Jog": 20298,
  "Jogo": 30666,
  "Jogos": 34105,
  "Johan": 36196,
  "John": 12128,
  "Johnny": 40093,
  "Johns": 41699,
  "Johnson": 49453,
  "Jon": 33251,
  "Jones": 39802,
  "Jorge": 25119,
  "Jornal": 13419,
  "Jos": 9959,
  "Jose": 22713,
  "Joseph": 26936,
  "JosÃ©": 11005,
  "Journal": 39984,
  "Jov": 39582,
  "JoÃ£o": 10876,
  "Ju": 9046,
  "Juan": 36805,
  "Jud": 40996,
  "Jul": 19538,
  "Jun": 41300,
  "Juntamente": 35007,
  "Junto": 28411,
  "Jus": 36854,
  "Just": 25611,
  "JÃ¡": 7348,
  "JÃºlio": 41941,
  "K": 43,
  "KA": 30200,
  "KK": 49170,
  "KO": 26856,
  "Ka": 14747,
  "Kan": 42180,
  "Kar": 33308,
  "Kara": 36977,
  "Karl": 45546,
  "Kat": 46468,
  "Ke": 16559,
  "Kee": 46273,
  "Ken": 49710,
  "Kevin": 47711,
  "Kill": 43296,
  "Kim": 31997,
  "King": 20689,
  "Kir": 39985,
  "Kiss": 40498,
  "Ko": 22122,
  "Kon": 49458,
  "Ku": 39653,
  "L": 44,
  "LA": 8082,
  "LAN": 42407,
  "LB": 29581,
  "LC": 14272,
  "LD": 48578,
  "LE": 20617,
  "LI": 28338,
  "LL": 43662,
  "LM": 32920,
  "LN": 49092,
  "LO": 23906,
  "LP": 18996,
  "LS": 19232,
  "LT": 26433,
  "La": 4242,
  "Lac": 44966,
  "Lady": 32899,
  "Lan": 47596,
  "Land": 34365,
  "LanÃ§ado": 32586,
  "Lar": 24663,
  "Las": 32142,
  "Last": 35104,
  "Lau": 23159,
  "Laura": 42833,
  "Law": 38322,
  "Lay": 43825,
  "Le": 4102,
  "Lea": 24214,
  "League": 34665,
  "Lee": 33824,
  "Leg": 40476,
  "Lege": 32966,
  "Lei": 11368,
  "Lem": 42991,
  "Len": 46856,
  "Leo": 35185,
  "Leon": 28320,
  "Leonardo": 49245,
  "Les": 18935,
  "Leste": 24008,
  "Let": 16869,
  "Lewis": 48392,
  "Lex": 39487,
  "LeÃ£o": 38778,
  "Li": 31214,
  "Lib": 28004,
  "Liber": 24461,
  "Lic": 33490,
  "Life": 20546,
  "Liga": 22511,
  "Light": 40378,
  "Like": 28186,
  "Lil": 49034,
  "Lim": 31662,
  "Linha": 35469,
  "Linux": 46664,
  "Lis": 12985,
  "Lisboa": 13861,
  "Lista": 24991,
  "Lite": 44290,
  "Little": 25785,
  "Liv": 13345,
  "Live": 19763,
  "Livro": 19845,
  "Lo": 5736,
  "Lobos": 34253,
  "Loc": 14144,
  "Localiza": 30851,
  "Localizada": 41337,
  "Localizado": 36610,
  "Log": 40997,
  "Logo": 11457,
  "Lon": 46855,
  "Lond": 27648,
  "London": 41929,
  "Londres": 29615,
  "Long": 36309,
  "Look": 45062,
  "Lord": 45209,
  "Los": 13909,
  "Lost": 34583,
  "Lou": 14464,
  "Louis": 25273,
  "Love": 13430,
  "Lu": 6498,
  "Lua": 39937,
  "Luc": 45186,
  "Lucas": 42363,
  "Luis": 40286,
  "Luiz": 29771,
  "Luz": 35823,
  "LuÃŃs": 23733,
  "Ly": 33252,
  "LÃ¡": 32014,
  "LÃ©": 48956,
  "M": 45,
  "MA": 4854,
  "MAC": 44198,
  "MAN": 37475,
  "MAR": 37417,
  "MB": 17860,
  "MC": 14846,
  "MD": 25350,
  "MDB": 10177,
  "ME": 7684,
  "MEBOL": 32892,
  "MET": 36531,
  "MF": 47352,
  "MG": 9138,
  "MHz": 39037,
  "MI": 10215,
  "ML": 13506,
  "MM": 34106,
  "MN": 32697,
  "MO": 22635,
  "MP": 13253,
  "MR": 43611,
  "MS": 6837,
  "MT": 18067,
  "MTV": 27199,
  "Ma": 3690,
  "Mac": 22078,
  "Maca": 48770,
  "Mad": 12915,
  "Mada": 40033,
  "Made": 48140,
  "Madonna": 28466,
  "Mag": 16215,
  "Mahon": 21617,
  "Maior": 19645,
  "Mais": 7876,
  "Make": 44191,
  "Mal": 16472,
  "Malha": 40905,
  "MalhaÃ§Ã£o": 42573,
  "Mam": 41818,
  "Man": 7819,
  "Mana": 49865,
  "Mand": 41819,
  "Mania": 19367,
  "Mano": 46421,
  "Mante": 49835,
  "Manuel": 24584,
  "Mar": 3701,
  "Mara": 24057,
  "Maravilha": 45268,
  "Marcelo": 38393,
  "Marco": 30330,
  "Marcos": 36332,
  "Margar": 49425,
  "Maria": 10269,
  "Marie": 26014,
  "Mario": 36331,
  "Mark": 33850,
  "Mart": 26848,
  "Martin": 29333,
  "Marvel": 46066,
  "Mary": 28817,
  "Mas": 7346,
  "Massa": 40941,
  "Master": 33016,
  "Mat": 14710,
  "Mate": 47151,
  "Mato": 50224,
  "Matt": 46151,
  "Mau": 35376,
  "Maur": 32717,
  "Max": 26424,
  "Maxim": 48771,
  "May": 24656,
  "Mc": 20572,
  "Me": 6011,
  "Med": 15295,
  "Medalha": 43868,
  "Media": 40577,
  "Mega": 38147,
  "Mel": 8014,
  "Melho": 48803,
  "Melhor": 9622,
  "Melo": 46592,
  "Mem": 15109,
  "Membro": 39275,
  "Membros": 37117,
  "MemÃ³rias": 32692,
  "Men": 12947,
  "Mer": 17767,
  "Mes": 12065,
  "Mesmo": 13449,
  "Mess": 48286,
  "Mestre": 24378,
  "Meta": 42181,
  "Metal": 28204,
  "Metro": 41066,
  "Meu": 20368,
  "Mi": 28187,
  "Mic": 14529,
  "Mich": 23969,
  "Michael": 21004,
  "Michel": 34560,
  "Mid": 35501,
  "Miguel": 28944,
  "Mike": 42471,
  "Mil": 18622,
  "Mill": 42035,
  "Min": 12534,
  "Minas": 28672,
  "Minha": 29242,
  "Ministro": 25988,
  "MinistÃ©rio": 48409,
  "Mir": 40998,
  "Mira": 30374,
  "Mirim": 42992,
  "Mis": 43826,
  "Miss": 19456,
  "Mo": 5870,
  "Mod": 28761,
  "Moder": 37157,
  "Modern": 48277,
  "Mol": 42944,
  "Mon": 18293,
  "Money": 49527,
  "Mons": 26971,
  "Mont": 21764,
  "Monte": 25574,
  "Montes": 35423,
  "Moon": 43224,
  "Mor": 13539,
  "More": 42236,
  "Morreu": 24256,
  "Mortal": 36130,
  "Morte": 48433,
  "Mos": 23789,
  "Movimento": 34313,
  "Mr": 26506,
  "Mu": 5216,
  "Mud": 37690,
  "Muitas": 16299,
  "Muito": 23820,
  "Muitos": 12417,
  "Mul": 15977,
  "Mulher": 34051,
  "Mulheres": 33709,
  "Mundo": 35550,
  "Munic": 44833,
  "Mur": 28760,
  "Mus": 33385,
  "Muse": 47272,
  "Museu": 25433,
  "Music": 15049,
  "My": 11454,
  "Mys": 45675,
  "MÃ¡": 35940,
  "MÃ¡r": 49654,
  "MÃ¡rio": 37397,
  "MÃ£e": 31389,
  "MÃ©": 25276,
  "MÃ©xico": 43658,
  "MÃºsica": 26371,
  "N": 46,
  "NA": 3554,
  "NAS": 47270,
  "NB": 42708,
  "NBA": 40261,
  "NC": 25232,
  "ND": 24515,
  "NDES": 44216,
  "NE": 12426,
  "NET": 33605,
  "NF": 44466,
  "NG": 14605,
  "NH": 33625,
  "NI": 26289,
  "NL": 37648,
  "NME": 41441,
  "NO": 19603,
  "NP": 30062,
  "NR": 30917,
  "NS": 23285,
  "NT": 8378,
  "NTE": 45257,
  "NTO": 47768,
  "NU": 7801,
  "NUD": 41704,
  "NXT": 38296,
  "NY": 49253,
  "Na": 1539,
  "Nada": 36310,
  "Nam": 49035,
  "Naquela": 42100,
  "Naquele": 44185,
  "Nar": 32086,
  "Nas": 4230,
  "Nasceu": 16315,
  "Nascida": 24540,
  "Nascido": 11655,
  "Natal": 34353,
  "National": 20957,
  "Natural": 31111,
  "Ne": 4697,
  "Neal": 41554,
  "Neil": 39678,
  "Neill": 31950,
  "Nelson": 44628,
  "Nem": 30997,
  "Nenhum": 44897,
  "Nessa": 19563,
  "Nesse": 14541,
  "Nesta": 15124,
  "Neste": 11572,
  "Net": 28957,
  "Never": 28166,
  "New": 9837,
  "News": 27010,
  "Ni": 35890,
  "Nic": 27946,
  "Nick": 35528,
  "Night": 31390,
  "Nik": 47425,
  "NinguÃ©m": 46353,
  "NiterÃ³i": 50182,
  "No": 1011,
  "Noite": 37836,
  "Nome": 26908,
  "Nor": 26764,
  "Nordeste": 43250,
  "Norma": 25467,
  "Normalmente": 33338,
  "Norte": 37518,
  "North": 39441,
  "Nos": 4441,
  "Nossa": 25033,
  "Nosso": 47558,
  "Not": 41747,
  "Nota": 24118,
  "Notas": 40740,
  "Note": 29464,
  "Nothing": 47546,
  "Nov": 44486,
  "Nova": 10760,
  "Novamente": 45068,
  "Novo": 24468,
  "Novos": 41957,
  "Now": 47683,
  "Nu": 21522,
  "Num": 22071,
  "Numa": 20361,
  "Nunca": 34475,
  "NÃ£o": 5425,
  "NÃ³s": 17631,
  "NÃº": 35784,
  "O": 47,
  "OC": 14617,
  "OE": 41038,
  "OH": 24484,
  "OK": 44679,
  "OL": 8518,
  "OM": 19008,
  "ON": 13424,
  "ONU": 48141,
  "OP": 18458,
  "OPE": 36704,
  "OR": 9228,
  "OS": 5854,
  "Ob": 21406,
  "Obs": 18010,
  "Observa": 42800,
  "Oc": 42182,
  "Oce": 44681,
  "Ocorre": 42806,
  "Ocu": 41861,
  "Oeste": 15410,
  "Of": 24680,
  "Off": 27112,
  "Office": 47785,
  "Oficial": 38528,
  "Oh": 21677,
  "Ol": 15577,
  "Old": 37729,
  "Oliv": 39654,
  "Olymp": 38826,
  "Olympic": 50180,
  "On": 16483,
  "Once": 49312,
  "Onde": 21619,
  "One": 14985,
  "Only": 49643,
  "Op": 34504,
  "Open": 35022,
  "Opera": 39442,
  "OperaÃ§Ã£o": 29340,
  "Or": 7991,
  "Ordem": 34470,
  "Org": 48778,
  "Organ": 26376,
  "OrganizaÃ§Ã£o": 43494,
  "Ori": 30805,
  "Orig": 16544,
  "Originalmente": 20746,
  "Os": 1220,
  "Oscar": 37434,
  "Ou": 4126,
  "Our": 41627,
  "Ouro": 45547,
  "Out": 26528,
  "Outra": 11357,
  "Outras": 15543,
  "Outro": 11138,
  "Outros": 11664,
  "Over": 30277,
  "Ox": 44680,
  "P": 48,
  "PA": 6351,
  "PAC": 36909,
  "PB": 26227,
  "PC": 8662,
  "PD": 28157,
  "PDT": 37048,
  "PE": 8215,
  "PEA": 41846,
  "PEG": 43984,
  "PF": 26330,
  "PG": 10447,
  "PI": 12153,
  "PIB": 37172,
  "PL": 30711,
  "PM": 16972,
  "PMDB": 23286,
  "PN": 31636,
  "PO": 26415,
  "PP": 12850,
  "PR": 8301,
  "PRO": 37110,
  "PS": 5662,
  "PSB": 35186,
  "PSD": 28921,
  "PSDB": 23151,
  "PSOL": 49071,
  "PT": 11182,
  "PTB": 37075,
  "PUC": 42664,
  "PV": 47353,
  "PW": 42089,
  "Pa": 4040,
  "Pac": 32571,
  "PacÃŃfico": 48653,
  "Pad": 22385,
  "Padre": 50172,
  "Pai": 31819,
  "Pais": 46723,
  "Pal": 13643,
  "Pala": 20517,
  "Palazzo": 28357,
  "PalÃ¡cio": 34767,
  "Pan": 30543,
  "Pant": 37398,
  "Papa": 37673,
  "Par": 6095,
  "Para": 2770,
  "Paral": 30983,
  "Paralelamente": 35071,
  "ParanÃ¡": 38279,
  "Pare": 28567,
  "Parece": 49308,
  "Paris": 22418,
  "Parque": 34314,
  "Part": 24379,
  "Parte": 30568,
  "Partic": 14526,
  "Participa": 42025,
  "Participou": 20035,
  "Partido": 21382,
  "ParÃ¡": 29875,
  "Pas": 29728,
  "Pass": 17370,
  "Passa": 41204,
  "Passou": 37608,
  "Pat": 29159,
  "Pau": 40585,
  "Paul": 14604,
  "Paulo": 13893,
  "Pay": 49171,
  "PaÃŃs": 40168,
  "Pe": 7879,
  "Ped": 29417,
  "Pedro": 16929,
  "Pela": 14937,
  "Pelo": 15516,
  "Pen": 37369,
  "Pens": 39803,
  "People": 40090,
  "Pequ": 32827,
  "Per": 8077,
  "Pere": 46224,
  "Pers": 38297,
  "Person": 45548,
  "Pes": 20847,
  "Pesados": 40991,
  "Pesquis": 32280,
  "Pesso": 39406,
  "Pessoas": 49378,
  "Peter": 22745,
  "Ph": 11273,
  "Phil": 24080,
  "Philip": 41622,
  "Phone": 28059,
  "Pi": 36949,
  "Pia": 23273,
  "Piazza": 30592,
  "Pic": 44788,
  "Pie": 46354,
  "Pierre": 25468,
  "Pin": 44229,
  "Pira": 36791,
  "Pl": 19979,
  "Pla": 11520,
  "Plan": 33080,
  "Planeta": 49307,
  "Plano": 37978,
  "Play": 23222,
  "Ple": 38059,
  "Po": 5804,
  "Pod": 32503,
  "Pode": 17448,
  "Podem": 43806,
  "Podemos": 33271,
  "Poder": 35005,
  "Pok": 25547,
  "PokÃ©mon": 33433,
  "Pol": 12297,
  "Poly": 48123,
  "PolÃŃptico": 46268,
  "Pont": 33055,
  "Ponte": 39443,
  "Ponto": 49222,
  "Pop": 16662,
  "PopulaÃ§Ã£o": 40446,
  "Por": 2745,
  "Porque": 42104,
  "Port": 45888,
  "Porta": 18187,
  "Portanto": 27429,
  "Porto": 16259,
  "Portugal": 18289,
  "Portugu": 38278,
  "PorÃ©m": 14856,
  "Pos": 12662,
  "Poss": 13780,
  "Possu": 47773,
  "Possui": 16566,
  "Posteriormente": 17134,
  "Pou": 28876,
  "Pouco": 15210,
  "Poucos": 41855,
  "Power": 34797,
  "Pr": 10224,
  "Pra": 13761,
  "Praia": 48058,
  "PraÃ§a": 32500,
  "Pre": 14694,
  "Pref": 34770,
  "Prem": 35984,
  "Pres": 11039,
  "Presidente": 16226,
  "Press": 49866,
  "Pretty": 45357,
  "Pri": 9455,
  "Primeira": 21101,
  "Primeiro": 23373,
  "Prin": 14603,
  "Prince": 41473,
  "Princesa": 46272,
  "Princip": 40488,
  "Principais": 45132,
  "Pro": 4363,
  "Proble": 49623,
  "ProduÃ§Ã£o": 47919,
  "Prof": 24203,
  "Professor": 38407,
  "Programa": 19608,
  "Projeto": 28635,
  "Promo": 50149,
  "Pros": 46665,
  "PrÃ©mio": 42655,
  "PrÃªmio": 19442,
  "PrÃŃncipe": 33275,
  "Ps": 38999,
  "Psy": 44398,
  "Pu": 14834,
  "Public": 24377,
  "Publicou": 37921,
  "Pul": 48287,
  "Py": 46593,
  "PÃ¡": 34238,
  "PÃ©": 44155,
  "Q": 49,
  "QL": 29263,
  "QU": 40067,
  "Qa": 28092,
  "Qaeda": 31869,
  "Qu": 877,
  "Quad": 36248,
  "Qual": 26350,
  "Qualquer": 35719,
  "Quando": 3918,
  "Quanto": 17596,
  "Quar": 36865,
  "Quase": 30205,
  "Quatro": 24011,
  "Que": 12726,
  "Queen": 26827,
  "Quem": 20146,
  "Quer": 36932,
  "Quero": 47745,
  "R": 50,
  "RA": 6150,
  "RAM": 42316,
  "RAN": 36260,
  "RB": 47172,
  "RC": 20275,
  "RE": 7439,
  "RENA": 26040,
  "RGS": 33120,
  "RI": 15503,
  "RIAA": 37006,
  "RIO": 42458,
  "RJ": 10264,
  "RN": 24168,
  "RNA": 32348,
  "RO": 10304,
  "ROM": 35495,
  "RP": 24386,
  "RS": 11388,
  "RT": 21589,
  "Ra": 5224,
  "Rad": 49036,
  "Radio": 30297,
  "Rafael": 42788,
  "Rain": 38516,
  "Rainha": 34552,
  "Ram": 37691,
  "Ran": 42527,
  "Rap": 46568,
  "Raw": 12562,
  "Ray": 22398,
  "Re": 2462,
  "Real": 23219,
  "Realizou": 50057,
  "Reb": 48804,
  "Rebel": 32489,
  "Rec": 19269,
  "Recebeu": 25432,
  "Recentemente": 25660,
  "Recife": 44762,
  "Recon": 44399,
  "Record": 46216,
  "Red": 15742,
  "Rede": 26965,
  "Ref": 37347,
  "Reg": 13640,
  "RegiÃ£o": 38443,
  "Regress": 46003,
  "Rei": 12853,
  "Reich": 30555,
  "Reilly": 47555,
  "Reino": 23526,
  "Rel": 21555,
  "Rela": 31870,
  "Rem": 48075,
  "Ren": 26750,
  "Rena": 47109,
  "Republic": 45299,
  "RepÃºblica": 29212,
  "Res": 11976,
  "Resident": 38484,
  "Ret": 49711,
  "Retor": 29055,
  "Retornou": 43708,
  "Retrato": 44127,
  "Revel": 39328,
  "Revista": 20501,
  "RevoluÃ§Ã£o": 42437,
  "Rib": 30854,
  "Ric": 29016,
  "Ricardo": 34363,
  "Rich": 22467,
  "Richard": 28024,
  "Rick": 48002,
  "Rio": 8352,
  "Rita": 47051,
  "Ro": 4959,
  "Rob": 44501,
  "Robert": 20051,
  "Roberto": 29175,
  "Robin": 41022,
  "Roc": 23878,
  "Rock": 18781,
  "Rod": 21660,
  "Rodrigo": 39766,
  "Rog": 29048,
  "Roger": 42233,
  "Rol": 14160,
  "Rolling": 16293,
  "Rom": 44575,
  "Roma": 24921,
  "Rome": 43612,
  "Ron": 49093,
  "Ros": 22613,
  "Rosa": 32612,
  "Rose": 38060,
  "Rot": 47945,
  "Rou": 37824,
  "Roy": 32910,
  "Royal": 23699,
  "Ru": 21369,
  "Rua": 29264,
  "Rub": 31172,
  "Run": 33735,
  "Russ": 40337,
  "RÃ¡dio": 33309,
  "RÃ©": 48349,
  "RÃºssia": 48076,
  "S": 51,
  "SA": 6510,
  "SAT": 46452,
  "SB": 35053,
  "SBT": 43827,
  "SC": 11828,
  "SD": 18450,
  "SE": 11911,
  "SF": 42617,
  "SG": 47790,
  "SH": 37613,
  "SI": 25760,
  "SL": 32418,
  "SM": 30761,
  "SO": 17861,
  "SP": 4601,
  "SPR": 47696,
  "SS": 6705,
  "ST": 15046,
  "STF": 44898,
  "SU": 38920,
  "SUS": 49793,
  "SW": 41079,
  "Sa": 3976,
  "Sabe": 31992,
  "Saint": 26314,
  "Sal": 10317,
  "Sala": 28742,
  "Salvador": 31860,
  "Sam": 16418,
  "Samba": 49699,
  "Samuel": 46775,
  "San": 12347,
  "Sand": 34638,
  "Sant": 20388,
  "Santa": 12034,
  "Santiago": 47409,
  "Santo": 25233,
  "Santos": 28544,
  "Sar": 35440,
  "Sara": 25918,
  "Sarah": 45854,
  "Sat": 37755,
  "Saturday": 32230,
  "Sau": 39534,
  "Say": 38531,
  "Scan": 45367,
  "Scar": 46992,
  "Sch": 15223,
  "Sco": 46667,
  "Scott": 35287,
  "Scream": 45610,
  "Script": 36509,
  "Se": 1775,
  "Sea": 49121,
  "Sebas": 44706,
  "Sec": 19421,
  "Secre": 32673,
  "Secret": 44822,
  "Segu": 4046,
  "Segue": 38734,
  "Seguindo": 25673,
  "Segunda": 26537,
  "Segundo": 4725,
  "Sei": 46666,
  "Seis": 39383,
  "Seja": 27990,
  "Sel": 28785,
  "SeleÃ§Ã£o": 40999,
  "Sem": 12124,
  "Sempre": 31783,
  "Sen": 26899,
  "Sendo": 18470,
  "Senhor": 32263,
  "Senhora": 47784,
  "Sent": 38336,
  "Ser": 11741,
  "Serra": 35941,
  "ServiÃ§o": 45405,
  "Sete": 26944,
  "Seu": 6161,
  "Seus": 15007,
  "Sex": 27071,
  "Sh": 9775,
  "Sha": 14536,
  "Shado": 42893,
  "Shadow": 48070,
  "Shar": 48657,
  "She": 21687,
  "Sher": 45676,
  "Shin": 43231,
  "Sho": 22736,
  "Show": 23530,
  "Si": 25081,
  "Sid": 49528,
  "Sig": 46422,
  "Sil": 21531,
  "Sile": 40543,
  "Silent": 49090,
  "Silver": 50005,
  "Sim": 14174,
  "Simon": 40949,
  "Sin": 23457,
  "Sing": 48288,
  "Single": 44347,
  "Sir": 30877,
  "Sistema": 32262,
  "Situ": 29341,
  "Situada": 47222,
  "Situado": 49163,
  "Sk": 34263,
  "Sky": 36239,
  "Slam": 35687,
  "Slant": 48727,
  "SmackDown": 19980,
  "Smith": 32470,
  "So": 4679,
  "Sob": 16048,
  "Sobre": 13459,
  "Soci": 34098,
  "Social": 44716,
  "Sociedade": 25940,
  "Sol": 18146,
  "Som": 32329,
  "Some": 21927,
  "Somente": 29571,
  "Something": 46983,
  "Son": 18119,
  "Song": 33626,
  "Sonic": 34978,
  "Sor": 36135,
  "Sou": 15520,
  "Soul": 37370,
  "South": 32390,
  "Sp": 16695,
  "Space": 25828,
  "Spe": 22409,
  "Spin": 39194,
  "Sport": 38131,
  "Sports": 41862,
  "Spot": 32613,
  "Sr": 46991,
  "St": 24859,
  "Sta": 6781,
  "Stan": 40034,
  "Stand": 45961,
  "Star": 8870,
  "Stars": 45308,
  "Station": 9101,
  "Ste": 12900,
  "Stephen": 45131,
  "Steve": 44038,
  "Stra": 21713,
  "Stre": 40727,
  "Street": 30447,
  "Stu": 26482,
  "Su": 5163,
  "Sua": 5860,
  "Suas": 17080,
  "Sub": 18378,
  "Subs": 40900,
  "Sud": 46099,
  "Sul": 20557,
  "Summer": 37399,
  "Sun": 33943,
  "Sup": 31510,
  "Super": 8706,
  "Superman": 23759,
  "Sur": 21746,
  "Surg": 49712,
  "Sus": 30940,
  "Suz": 48142,
  "SuÃŃ": 49459,
  "Sw": 30375,
  "Sweet": 35529,
  "Sy": 30621,
  "SÃ£o": 4616,
  "SÃ©r": 37922,
  "SÃ©rgio": 44625,
  "SÃ©rie": 37124,
  "SÃ³": 21578,
  "SÃŃ": 33149,
  "T": 52,
  "TA": 5140,
  "TAN": 19264,
  "TAR": 43381,
  "TB": 39111,
  "TC": 8222,
  "TE": 9776,
  "TEL": 25318,
  "TELESP": 43292,
  "TER": 43714,
  "TF": 12620,
  "TH": 32330,
  "TI": 16863,
  "TM": 20629,
  "TNA": 48434,
  "TO": 15646,
  "TP": 6270,
  "TR": 28906,
  "TS": 9517,
  "TSE": 46711,
  "TT": 34413,
  "TU": 27549,
  "TV": 3543,
  "Ta": 6943,
  "Tais": 43106,
  "Take": 28887,
  "Tal": 12098,
  "Talvez": 36264,
  "TambÃ©m": 6658,
  "Tan": 38827,
  "Tanto": 24794,
  "Tar": 24869,
  "Tarzan": 42332,
  "Taxa": 38557,
  "Tay": 39881,
  "Taylor": 46718,
  "TaÃ§a": 42742,
  "Te": 6006,
  "Team": 34605,
  "Teatro": 26001,
  "Tec": 34844,
  "Teen": 35771,
  "Tel": 47528,
  "Tele": 25472,
  "Tem": 9249,
  "Temos": 45677,
  "Tempo": 29191,
  "Ten": 26023,
  "Tendo": 16650,
  "Teoria": 41065,
  "Ter": 11472,
  "Termin": 31782,
  "Terra": 19519,
  "Teve": 22824,
  "Tex": 30120,
  "Th": 9714,
  "That": 36106,
  "The": 1390,
  "This": 23772,
  "Tho": 21796,
  "Thomas": 25991,
  "Thor": 47110,
  "Three": 43863,
  "Ti": 28221,
  "Tim": 30178,
  "Time": 16734,
  "Times": 35470,
  "Tinha": 48658,
  "Tipo": 47173,
  "Titanic": 19443,
  "To": 4419,
  "Toda": 20872,
  "Todas": 16157,
  "Todavia": 40098,
  "Todo": 20977,
  "Todos": 12392,
  "Tok": 45611,
  "Tom": 16864,
  "Ton": 41345,
  "Tony": 38952,
  "Too": 46257,
  "Top": 19787,
  "Tor": 21397,
  "Torn": 24436,
  "Tornou": 34446,
  "Toro": 46993,
  "Torre": 28845,
  "Total": 29627,
  "Tou": 41039,
  "Tour": 34172,
  "Toy": 38779,
  "Tr": 14117,
  "Tra": 5729,
  "Trabal": 22429,
  "Trabalhou": 36788,
  "Tradicionalmente": 37353,
  "Trans": 15595,
  "Trata": 22996,
  "Tratado": 38439,
  "Tre": 22295,
  "Tri": 16083,
  "Tric": 37885,
  "Tro": 19741,
  "TrofÃ©u": 49575,
  "Trop": 47111,
  "Tru": 22981,
  "True": 37817,
  "TrÃªs": 16932,
  "Ts": 44682,
  "Tu": 23562,
  "Tube": 9916,
  "Tudo": 19413,
  "Tunes": 13207,
  "Tur": 15086,
  "Turn": 36787,
  "Tw": 29394,
  "Two": 36343,
  "Ty": 25388,
  "TÃ¡": 49944,
  "U": 53,
  "UA": 3149,
  "UB": 27014,
  "UC": 11135,
  "UCN": 37874,
  "UD": 29323,
  "UE": 24664,
  "UF": 14469,
  "UI": 32587,
  "UK": 33121,
  "UL": 18443,
  "UM": 27015,
  "UN": 13370,
  "UNA": 40771,
  "UP": 23329,
  "UR": 16170,
  "US": 9966,
  "USA": 23736,
  "USP": 20983,
  "UT": 23690,
  "UTC": 21661,
  "Ul": 38794,
  "Ultra": 38867,
  "Um": 2635,
  "Uma": 2992,
  "Un": 6214,
  "Unc": 41863,
  "Under": 31215,
  "Unidade": 45714,
  "United": 37263,
  "Univers": 23570,
  "Universal": 47933,
  "Universidade": 21051,
  "UniÃ£o": 25698,
  "Up": 25562,
  "Ur": 36208,
  "Uru": 42618,
  "Us": 20479,
  "Usando": 38016,
  "Util": 34905,
  "V": 54,
  "VA": 16333,
  "VB": 33776,
  "VC": 22059,
  "VD": 4583,
  "VE": 29678,
  "VI": 18379,
  "VID": 22117,
  "VII": 26254,
  "VIII": 32471,
  "VM": 37458,
  "VO": 26792,
  "VP": 19011,
  "Va": 33677,
  "Vai": 33865,
  "Val": 14886,
  "Vale": 23198,
  "Vamos": 33806,
  "Van": 23842,
  "Var": 45795,
  "Variety": 33713,
  "Vasco": 45981,
  "Ve": 16101,
  "Veja": 29414,
  "Vel": 41301,
  "Velha": 38668,
  "Velho": 36107,
  "Vem": 49655,
  "Ven": 21468,
  "Vence": 43053,
  "Ver": 10667,
  "Vera": 48143,
  "Vers": 42753,
  "Vi": 20407,
  "Via": 12806,
  "Vic": 18923,
  "Vice": 33805,
  "Victor": 38570,
  "Victoria": 49306,
  "Vida": 25527,
  "Video": 43995,
  "Vie": 46594,
  "Vila": 20055,
  "Villa": 28824,
  "Vin": 40960,
  "Vir": 22480,
  "Vis": 30376,
  "Vision": 49254,
  "Vita": 49713,
  "VitÃ³ria": 36619,
  "Viv": 43251,
  "Viva": 31886,
  "Vo": 13781,
  "VocÃª": 16363,
  "Vogue": 43600,
  "Vol": 13511,
  "Volta": 44039,
  "Voltou": 36204,
  "Vou": 48289,
  "Voz": 42271,
  "Vul": 44789,
  "VÃ¡rias": 23099,
  "VÃ¡rios": 18125,
  "W": 55,
  "WA": 18820,
  "WC": 17156,
  "WS": 47174,
  "WW": 26463,
  "WWE": 38196,
  "Wa": 20848,
  "Wal": 15334,
  "Walter": 42850,
  "War": 21389,
  "Washington": 35471,
  "Wat": 45141,
  "Watch": 46724,
  "Way": 42183,
  "We": 12235,
  "Web": 39148,
  "Wei": 40906,
  "Wel": 40035,
  "West": 25814,
  "Wh": 16533,
  "What": 18016,
  "When": 26240,
  "Where": 37984,
  "White": 26524,
  "Who": 26634,
  "Why": 48144,
  "Wil": 14018,
  "Wild": 34135,
  "Will": 36817,
  "William": 19491,
  "Williams": 47647,
  "Win": 49585,
  "Windows": 46595,
  "Wire": 44467,
  "Wit": 41481,
  "With": 48209,
  "Wo": 19505,
  "Wolf": 38532,
  "Wood": 44899,
  "Works": 32725,
  "World": 18943,
  "X": 56,
  "XT": 18552,
  "XX": 23572,
  "Xu": 42528,
  "Xuxa": 46286,
  "Y": 57,
  "YP": 39354,
  "Ya": 27284,
  "Ye": 35891,
  "Yo": 27249,
  "You": 11777,
  "Young": 32498,
  "Your": 46469,
  "Yu": 42280,
  "Z": 58,
  "ZA": 29049,
  "Za": 29709,
  "Ze": 44291,
  "Zero": 36038,
  "Zo": 26464,
  "Zona": 42665,
  "ZÃ©": 37371,
  "[": 59,
  "[...]": 43297,
  "[[": 8043,
  "\\": 60,
  "]": 61,
  "]\"": 42036,
  "]\".": 43943,
  "],": 13408,
  "].": 15276,
  "]]": 2718,
  "]]\"": 39601,
  "]]\",": 48766,
  "]],": 7426,
  "]].": 12848,
  "^": 62,
  "_": 63,
  "__": 7683,
  "____": 14559,
  "________": 25080,
  "________________": 41666,
  "`": 64,
  "a": 65,
  "ab": 13313,
  "aba": 42420,
  "abre": 38795,
  "abs": 34906,
  "ac": 3415,
  "ace": 20485,
  "ach": 4918,
  "achment": 19153,
  "action": 27980,
  "actual": 41104,
  "acyr": 35641,
  "ad": 271,
  "ada": 367,
  "adamente": 2110,
  "adap": 43668,
  "adar": 27634,
  "adares": 27201,
  "adas": 523,
  "addin": 43715,
  "ade": 378,
  "aded": 48217,
  "adeia": 6740,
  "adeira": 2218,
  "adeiras": 32973,
  "adeiro": 5026,
  "adeiros": 27947,
  "adel": 16246,
  "adelphia": 23541,
  "adema": 34941,
  "aden": 38797,
  "adense": 43300,
  "adequ": 16493,
  "ader": 10651,
  "aders": 41912,
  "ades": 642,
  "adesh": 23871,
  "adi": 10162,
  "adia": 8949,
  "adim": 48883,
  "ading": 30545,
  "adinho": 35441,
  "adino": 23308,
  "adio": 17246,
  "adir": 35789,
  "adju": 12932,
  "adjuvante": 16808,
  "administ": 26103,
  "ado": 324,
  "adol": 36419,
  "adolid": 41669,
  "ador": 629,
  "adora": 2026,
  "adoras": 9190,
  "adores": 908,
  "adoria": 9879,
  "ados": 430,
  "adouro": 34506,
  "adrez": 13636,
  "ads": 18845,
  "adu": 38831,
  "adura": 4927,
  "aduras": 19743,
  "adure": 20810,
  "aduto": 27892,
  "ady": 8107,
  "adÃ¡": 3608,
  "adÃ£o": 23845,
  "adÃ©l": 15817,
  "adÃ©lfia": 15981,
  "adÃªncia": 16441,
  "adÃ³cia": 37373,
  "ae": 7082,
  "af": 10867,
  "afric": 17353,
  "africana": 40136,
  "africano": 30957,
  "africanos": 46518,
  "ag": 599,
  "agan": 14093,
  "agar": 10905,
  "age": 5361,
  "agem": 1095,
  "agement": 27682,
  "agen": 16811,
  "agens": 1881,
  "agente": 49675,
  "ager": 18485,
  "ages": 40736,
  "agger": 43364,
  "agh": 49326,
  "agi": 21107,
  "agle": 39370,
  "agner": 12863,
  "agon": 12352,
  "agonal": 34962,
  "agora": 19063,
  "agos": 8114,
  "agra": 38844,
  "agre": 22259,
  "agreb": 35935,
  "ah": 13594,
  "ai": 20104,
  "ainda": 22572,
  "ais": 562,
  "aiser": 25740,
  "aiss": 47606,
  "aix": 5322,
  "ajuda": 46791,
  "ak": 9625,
  "aki": 43554,
  "akon": 44508,
  "al": 294,
  "ala": 947,
  "alai": 36321,
  "alajara": 30435,
  "aland": 23280,
  "alar": 48356,
  "alas": 35790,
  "aldade": 9633,
  "alde": 41913,
  "aldo": 20128,
  "ale": 1635,
  "alea": 45173,
  "aleceu": 14593,
  "alegre": 44424,
  "alem": 21275,
  "alemÃ£o": 34931,
  "alena": 17469,
  "ales": 18022,
  "algo": 30407,
  "algu": 14820,
  "algumas": 28804,
  "alguns": 23948,
  "alh": 5110,
  "alha": 3635,
  "alhamento": 23204,
  "alhas": 43717,
  "alhes": 21318,
  "alho": 36921,
  "alhÃ£es": 10546,
  "ali": 8462,
  "alia": 33414,
  "alidade": 3389,
  "alidades": 6630,
  "alis": 37010,
  "alismo": 22171,
  "aliz": 666,
  "aliza": 6811,
  "alizada": 9149,
  "alizadas": 19013,
  "alizado": 7606,
  "alizador": 46483,
  "alizados": 15788,
  "alizam": 43783,
  "alizando": 26916,
  "alizar": 10356,
  "alizaram": 48824,
  "alizaÃ§Ã£o": 4298,
  "alizaÃ§Ãµes": 10927,
  "alizou": 13586,
  "alizÃ£o": 16421,
  "all": 1819,
  "alla": 34451,
  "alli": 40652,
  "ally": 15077,
  "almente": 775,
  "almirante": 29360,
  "alo": 3559,
  "aloo": 43802,
  "alos": 14193,
  "alpina": 50192,
  "als": 25774,
  "alta": 29617,
  "alte": 18354,
  "alth": 15470,
  "alto": 5727,
  "altos": 30960,
  "alu": 15380,
  "alunos": 44105,
  "alupe": 27631,
  "alus": 24886,
  "aluz": 27137,
  "alves": 8542,
  "alvo": 27575,
  "aly": 36346,
  "alÃ¡": 45148,
  "alÃ©m": 7361,
  "am": 348,
  "ama": 12643,
  "amado": 46234,
  "amar": 33777,
  "amarelo": 46336,
  "amas": 21874,
  "amb": 1475,
  "amba": 20812,
  "ambas": 36778,
  "ambi": 24763,
  "ambiente": 47198,
  "ambo": 24929,
  "ambos": 26759,
  "ambu": 20136,
  "ambuja": 47855,
  "ambÃ©m": 2024,
  "ame": 22353,
  "amente": 3586,
  "amento": 1913,
  "amentos": 8951,
  "amer": 35919,
  "americ": 2410,
  "americana": 5588,
  "americanas": 13882,
  "americano": 4887,
  "americanos": 7493,
  "ames": 2603,
  "ami": 8899,
  "amia": 32286,
  "amina": 27858,
  "amino": 41398,
  "amo": 8512,
  "amon": 31871,
  "amor": 23492,
  "amos": 3679,
  "amoto": 20844,
  "amp": 4980,
  "ampa": 7565,
  "ampira": 39363,
  "amu": 46174,
  "amura": 33609,
  "amus": 28300,
  "amy": 39083,
  "amÃ¡": 14766,
  "amÃ£": 40778,
  "amÃ©rica": 28341,
  "an": 317,
  "ana": 904,
  "anal": 9152,
  "anar": 43561,
  "anas": 3399,
  "anato": 10895,
  "anc": 1556,
  "anca": 20679,
  "ance": 3494,
  "ances": 24630,
  "ancha": 18191,
  "anche": 8829,
  "anchete": 17376,
  "anchez": 33752,
  "ancho": 11526,
  "ancing": 30837,
  "ancini": 34155,
  "ancy": 16076,
  "and": 1294,
  "ander": 12187,
  "ando": 477,
  "andom": 44480,
  "andora": 42585,
  "andro": 15105,
  "andy": 26246,
  "ane": 1388,
  "aneamente": 17804,
  "aneamento": 17995,
  "aneira": 43947,
  "aneiro": 996,
  "anel": 34670,
  "anema": 18579,
  "anes": 16114,
  "aneta": 34964,
  "anex": 43015,
  "aney": 41963,
  "ang": 1572,
  "anga": 13948,
  "angai": 20976,
  "angas": 27168,
  "ange": 13547,
  "angel": 43418,
  "angelo": 25858,
  "anger": 15538,
  "angerous": 37041,
  "ango": 21254,
  "angu": 35754,
  "anh": 753,
  "anha": 1152,
  "anhar": 38428,
  "anhas": 4398,
  "anhattan": 15307,
  "anhia": 4733,
  "anhos": 26468,
  "anhou": 16746,
  "anhÃ£": 48748,
  "ani": 7610,
  "ania": 6384,
  "anidade": 45865,
  "anie": 18175,
  "anim": 14198,
  "anime": 47532,
  "animidade": 19986,
  "anina": 46362,
  "anismo": 19313,
  "ank": 22660,
  "anmar": 49387,
  "ann": 6005,
  "anna": 15230,
  "anne": 22124,
  "annon": 26052,
  "ano": 816,
  "anor": 30065,
  "anos": 1531,
  "anov": 24489,
  "anova": 29856,
  "ans": 3802,
  "ansha": 42832,
  "ansÃ£o": 4627,
  "ant": 1048,
  "anta": 26635,
  "antar": 13103,
  "antas": 6850,
  "ante": 7329,
  "anteriormente": 26228,
  "antes": 12451,
  "anti": 35539,
  "antiga": 22141,
  "antigo": 30791,
  "anto": 634,
  "anu": 36182,
  "anus": 34344,
  "any": 6179,
  "anza": 43948,
  "anÃ¡lise": 21348,
  "anÃ§": 698,
  "anÃ§a": 1118,
  "anÃ§ada": 23503,
  "anÃ§ado": 10985,
  "anÃ§ados": 39286,
  "anÃ§amento": 17729,
  "anÃ§ando": 43517,
  "anÃ§ar": 24969,
  "anÃ§as": 3071,
  "anÃ§o": 6528,
  "anÃ§ou": 18392,
  "anÃªs": 22689,
  "ao": 12466,
  "aos": 44054,
  "ap": 8103,
  "apare": 39846,
  "apel": 45142,
  "apenas": 22092,
  "apesar": 24790,
  "apo": 28297,
  "apre": 40499,
  "apresent": 35288,
  "apro": 22766,
  "aproximadamente": 29849,
  "apÃ³s": 26505,
  "aquele": 43252,
  "ar": 290,
  "ara": 314,
  "arada": 26074,
  "arado": 22853,
  "aram": 612,
  "arama": 43455,
  "aramu": 31147,
  "aran": 3514,
  "arani": 13699,
  "aranj": 22025,
  "aranja": 13227,
  "aranjas": 39602,
  "aras": 10168,
  "aray": 40867,
  "arca": 29244,
  "arch": 11507,
  "arco": 31320,
  "ard": 840,
  "arda": 3045,
  "ardas": 5868,
  "arde": 11684,
  "ardente": 46995,
  "ardi": 15292,
  "ardim": 4701,
  "ardin": 28496,
  "ardins": 10658,
  "ardo": 2302,
  "ards": 18509,
  "ardt": 35249,
  "are": 942,
  "ared": 39630,
  "arejo": 15122,
  "arel": 40642,
  "arela": 24731,
  "arelas": 49549,
  "arem": 34723,
  "aren": 8244,
  "arense": 15624,
  "ares": 4454,
  "aresma": 34967,
  "arez": 33208,
  "ari": 1699,
  "aria": 804,
  "ariado": 24131,
  "ariais": 22209,
  "arial": 12895,
  "ariam": 5195,
  "ariamente": 7844,
  "arian": 36281,
  "ariana": 24773,
  "ariano": 44916,
  "arianos": 45041,
  "arias": 14549,
  "ariato": 34034,
  "ariedade": 15082,
  "ariety": 26943,
  "arim": 42337,
  "arinho": 46671,
  "ario": 17464,
  "aris": 42474,
  "arista": 31766,
  "aristas": 33809,
  "arium": 46751,
  "arius": 28012,
  "ark": 15947,
  "arl": 10509,
  "arle": 42136,
  "arm": 14913,
  "arma": 46866,
  "arn": 8303,
  "aros": 9540,
  "arqu": 49259,
  "arque": 20819,
  "arquia": 18773,
  "arquite": 46730,
  "arre": 13147,
  "arro": 19808,
  "arros": 28976,
  "ars": 5665,
  "arst": 48248,
  "art": 2176,
  "arte": 5621,
  "artel": 44578,
  "arth": 30356,
  "arthe": 38217,
  "artheid": 42128,
  "artigo": 46729,
  "artney": 20514,
  "arto": 26881,
  "arts": 23176,
  "aru": 38133,
  "ary": 9666,
  "arÃ¡": 2795,
  "arÃ¡gua": 23568,
  "arÃ£o": 12240,
  "arÃ©": 28620,
  "arÃµes": 26666,
  "as": 267,
  "asa": 11605,
  "asaki": 23207,
  "asc": 19283,
  "asco": 12421,
  "ase": 720,
  "aser": 23231,
  "ases": 33436,
  "ash": 2850,
  "ashi": 13778,
  "ashington": 5489,
  "ashion": 25024,
  "asi": 26417,
  "asis": 43831,
  "ason": 18836,
  "ass": 570,
  "assa": 13967,
  "assal": 44249,
  "assas": 32618,
  "asse": 1959,
  "assel": 50199,
  "assem": 3869,
  "asser": 19653,
  "assi": 19106,
  "assicismo": 41450,
  "assie": 45431,
  "assim": 23445,
  "assin": 34369,
  "assis": 29363,
  "asso": 13541,
  "assos": 21080,
  "assÃ¢n": 20541,
  "assÃ¢nida": 25750,
  "assÃ¢nidas": 43041,
  "ast": 4030,
  "asta": 11218,
  "astas": 23215,
  "aste": 6435,
  "aster": 34505,
  "astings": 37710,
  "astres": 25810,
  "astro": 35753,
  "asu": 24073,
  "asÃ£o": 26981,
  "at": 473,
  "ata": 7869,
  "atado": 48970,
  "ataque": 25652,
  "ataques": 45402,
  "atas": 8030,
  "atch": 20906,
  "ate": 23377,
  "ater": 2579,
  "aterina": 44427,
  "ates": 6599,
  "ath": 5492,
  "atha": 37620,
  "athan": 9766,
  "athe": 47679,
  "ather": 13799,
  "ati": 49867,
  "atidÃ£o": 38459,
  "atin": 46545,
  "atina": 27601,
  "ating": 29502,
  "atinga": 20487,
  "atino": 39366,
  "atisf": 13334,
  "atlÃ¢nt": 30067,
  "ato": 14401,
  "aton": 25072,
  "ator": 4201,
  "atori": 28190,
  "atoria": 14020,
  "atorial": 21031,
  "atoriamente": 19166,
  "atoriedade": 29616,
  "ators": 48325,
  "atorze": 16327,
  "atos": 2382,
  "atra": 24531,
  "atrav": 27898,
  "atravÃ©s": 28997,
  "atre": 13637,
  "atro": 966,
  "atros": 16224,
  "atrÃ¡s": 49172,
  "ats": 15130,
  "atsu": 28715,
  "att": 19657,
  "atta": 49186,
  "atti": 43836,
  "attle": 12637,
  "atto": 49809,
  "atu": 45860,
  "atual": 8538,
  "atualmente": 19928,
  "atÃ¡": 47299,
  "atÃ¡rio": 25932,
  "atÃ¡rios": 40110,
  "atÃ£o": 32287,
  "atÃ©": 15546,
  "atÃ³": 2936,
  "atÃ³ria": 8142,
  "atÃ³rias": 9911,
  "atÃ³rio": 6715,
  "atÃ³rios": 13724,
  "au": 1434,
  "aud": 41752,
  "audi": 43269,
  "augu": 2857,
  "aut": 40788,
  "auto": 23704,
  "autor": 20687,
  "autoria": 44184,
  "aux": 16456,
  "av": 20592,
  "ava": 2343,
  "aval": 44100,
  "avam": 14965,
  "avante": 36364,
  "aven": 22946,
  "aventura": 40297,
  "aver": 29527,
  "avi": 7753,
  "aviÃ£o": 47632,
  "aviÃµes": 21916,
  "avy": 11130,
  "avÃ´": 47220,
  "ax": 45982,
  "ay": 1795,
  "aya": 17662,
  "az": 12101,
  "azul": 28377,
  "aÃ§Ã£o": 463,
  "aÃ§Ãµes": 1495,
  "aÃ§Ãºcar": 18492,
  "b": 66,
  "ba": 705,
  "bach": 12333,
  "bachev": 42148,
  "bacia": 47254,
  "bacias": 39373,
  "back": 6855,
  "background": 33216,
  "backs": 36763,
  "baco": 18014,
  "bacter": 35731,
  "bactÃ©rias": 46242,
  "bad": 19353,
  "bada": 36658,
  "bado": 19611,
  "bados": 42894,
  "bag": 24781,
  "bah": 30477,
  "bai": 24745,
  "bain": 31496,
  "bairro": 49677,
  "bais": 12489,
  "baix": 4807,
  "baixista": 47559,
  "baixo": 6912,
  "bakh": 48602,
  "bal": 659,
  "bala": 22227,
  "baldo": 26202,
  "ball": 7247,
  "balo": 42049,
  "bam": 44683,
  "bama": 10506,
  "ban": 5352,
  "bana": 35750,
  "band": 16926,
  "banda": 30184,
  "bande": 40635,
  "bandeira": 33742,
  "bando": 22959,
  "bane": 29557,
  "banho": 25757,
  "bank": 24613,
  "bano": 27739,
  "banos": 49868,
  "bante": 38388,
  "bao": 34784,
  "bar": 2376,
  "bara": 9280,
  "bard": 31421,
  "bari": 48877,
  "baro": 37380,
  "barra": 48387,
  "barÃ¡": 37668,
  "barÃ©": 50055,
  "bas": 3269,
  "base": 16140,
  "baste": 25765,
  "bat": 4889,
  "bata": 30627,
  "bate": 2537,
  "bater": 27432,
  "bateria": 23841,
  "bates": 38118,
  "bath": 32255,
  "bato": 21120,
  "batÃ©": 25686,
  "bau": 26865,
  "bauer": 49815,
  "baum": 29929,
  "bay": 29037,
  "bayashi": 44960,
  "baÃ§a": 28964,
  "bb": 14825,
  "bbie": 38706,
  "bby": 20620,
  "be": 609,
  "beas": 37622,
  "beat": 32095,
  "beau": 43512,
  "bec": 37730,
  "beca": 38347,
  "beck": 25313,
  "bede": 35112,
  "bedo": 42194,
  "bee": 33876,
  "bei": 36077,
  "beira": 28129,
  "beis": 25982,
  "bel": 1230,
  "bela": 5536,
  "bele": 2297,
  "belec": 2632,
  "bell": 13792,
  "bella": 26671,
  "belle": 49401,
  "bello": 30094,
  "belo": 49255,
  "bels": 34701,
  "bem": 23701,
  "ben": 9661,
  "bene": 46858,
  "benkian": 25370,
  "ber": 731,
  "bera": 35325,
  "berdade": 43265,
  "berg": 3794,
  "bergaria": 44441,
  "berger": 22839,
  "bergh": 45436,
  "bero": 21121,
  "berry": 23091,
  "bers": 23856,
  "bert": 2529,
  "berta": 3818,
  "bertas": 33926,
  "berto": 2076,
  "bertos": 41589,
  "berts": 18438,
  "bertura": 26320,
  "bes": 5053,
  "besp": 43747,
  "best": 41387,
  "bet": 29249,
  "bete": 35899,
  "betes": 20584,
  "beth": 7671,
  "bey": 27324,
  "bi": 3384,
  "bia": 4561,
  "bian": 44967,
  "bias": 22457,
  "bic": 32947,
  "bica": 39732,
  "bico": 33714,
  "bid": 40262,
  "bida": 37519,
  "bidade": 37173,
  "bidos": 40772,
  "bie": 19334,
  "bies": 33795,
  "big": 36586,
  "bil": 1074,
  "bile": 12763,
  "bileu": 32499,
  "bili": 31773,
  "bilidade": 1843,
  "bilidades": 5305,
  "bilis": 47610,
  "bilisi": 44754,
  "bilitaÃ§Ã£o": 40387,
  "bility": 40312,
  "bilizar": 41096,
  "bilizaÃ§Ã£o": 33373,
  "bilizou": 28882,
  "bin": 10008,
  "bina": 14429,
  "binas": 24647,
  "bine": 6981,
  "binete": 7868,
  "binetes": 35614,
  "bino": 48210,
  "bio": 5570,
  "biologia": 35516,
  "bios": 16249,
  "bir": 30485,
  "bira": 27298,
  "bird": 35265,
  "bis": 9415,
  "bisome": 31435,
  "bispo": 46225,
  "bit": 5331,
  "bita": 1698,
  "bitas": 22284,
  "biter": 12321,
  "bito": 22255,
  "bits": 34934,
  "bius": 49352,
  "bl": 581,
  "bla": 24497,
  "blade": 46114,
  "blado": 33230,
  "blanca": 33263,
  "blas": 29697,
  "blast": 36555,
  "blastos": 49309,
  "ble": 1192,
  "bler": 42427,
  "bles": 18367,
  "blic": 3508,
  "blin": 15445,
  "blina": 39413,
  "bliote": 4011,
  "blioteca": 4938,
  "blo": 7764,
  "blon": 45282,
  "bloque": 24374,
  "blos": 44847,
  "blues": 45321,
  "bo": 618,
  "boa": 2261,
  "board": 4205,
  "boc": 25642,
  "boca": 38464,
  "body": 19032,
  "boi": 39205,
  "bois": 45689,
  "bol": 1412,
  "bola": 28075,
  "bolas": 39254,
  "bollah": 46384,
  "bolo": 42433,
  "bom": 33087,
  "bomb": 40461,
  "bomba": 46115,
  "bon": 10254,
  "bona": 38921,
  "bone": 20600,
  "bonne": 31565,
  "bono": 36542,
  "book": 9120,
  "books": 43093,
  "boom": 45038,
  "boot": 40689,
  "bor": 3791,
  "bora": 1392,
  "borah": 32853,
  "boraÃ§Ã£o": 47542,
  "borg": 20789,
  "born": 24158,
  "borne": 37968,
  "boro": 37948,
  "borou": 7479,
  "borough": 21159,
  "bos": 3539,
  "bot": 17993,
  "bots": 44975,
  "bou": 17001,
  "bour": 11246,
  "bourg": 32108,
  "bourne": 15946,
  "bow": 23068,
  "box": 7938,
  "boxing": 46709,
  "boy": 11644,
  "boys": 25043,
  "bps": 48077,
  "br": 1313,
  "bra": 1703,
  "brador": 48619,
  "brais": 27400,
  "bral": 6489,
  "bran": 30338,
  "branc": 16276,
  "branca": 41338,
  "branco": 26358,
  "brand": 25366,
  "brando": 37344,
  "brandt": 42803,
  "branqui": 40412,
  "brar": 39355,
  "bras": 4340,
  "brasil": 31900,
  "brasile": 14234,
  "brasileira": 29689,
  "brasileiro": 26968,
  "brasileiros": 39874,
  "brav": 31585,
  "braÃ§o": 44651,
  "bre": 1482,
  "brea": 41442,
  "break": 31586,
  "brecht": 24548,
  "brega": 29040,
  "brem": 15627,
  "bres": 4547,
  "breu": 12029,
  "breus": 33904,
  "bri": 2101,
  "bria": 17757,
  "briand": 36915,
  "brica": 13531,
  "bricas": 35334,
  "brick": 38729,
  "bridge": 11411,
  "brig": 46857,
  "briga": 38391,
  "bril": 42335,
  "brina": 30265,
  "brindo": 12968,
  "brinho": 26280,
  "brio": 45420,
  "brir": 29183,
  "bris": 32058,
  "britÃ¢n": 43107,
  "briu": 23611,
  "bro": 669,
  "brook": 39741,
  "bros": 16323,
  "brou": 9092,
  "bru": 18358,
  "brÃ¡s": 31260,
  "brÃ¼ck": 40350,
  "bs": 3772,
  "bsor": 44193,
  "bt": 47529,
  "bu": 815,
  "buco": 30453,
  "bud": 45939,
  "bue": 35331,
  "bul": 6725,
  "bula": 30486,
  "bular": 20564,
  "bulares": 35559,
  "bule": 26917,
  "bull": 38327,
  "bulo": 18263,
  "bulos": 18135,
  "bulosa": 25619,
  "bulÃ¡rio": 21158,
  "bum": 1012,
  "bun": 3133,
  "buna": 17656,
  "bunaga": 45197,
  "bunal": 3777,
  "bundo": 46550,
  "buns": 4412,
  "buntu": 47895,
  "bur": 2423,
  "bura": 41527,
  "burg": 7143,
  "burgh": 17265,
  "burgo": 4715,
  "burgos": 32130,
  "burn": 16588,
  "buro": 33132,
  "bury": 12448,
  "bus": 6002,
  "but": 41685,
  "buti": 40556,
  "buto": 49483,
  "bwe": 40679,
  "by": 2879,
  "bye": 32964,
  "bÃ¡": 6978,
  "bÃ¡rio": 46165,
  "bÃ¡s": 41907,
  "bÃ£o": 17692,
  "bÃ©": 23307,
  "bÃ©tica": 37174,
  "bÃ³": 24294,
  "bÃŃ": 14510,
  "bÃŃtero": 28219,
  "bÃŃteros": 48262,
  "bÃŃtrio": 33548,
  "c": 67,
  "ca": 426,
  "cab": 8441,
  "caba": 14267,
  "cabana": 17123,
  "cabe": 17857,
  "cabeÃ§a": 28091,
  "cabeÃ§as": 33546,
  "cabou": 24254,
  "cacia": 17551,
  "cad": 5730,
  "cada": 2457,
  "cadamente": 36378,
  "cadas": 5168,
  "cade": 9537,
  "cadeia": 42754,
  "cadeira": 21717,
  "cadeiras": 29291,
  "cades": 49313,
  "cado": 1305,
  "cador": 12379,
  "cadores": 10539,
  "cados": 2934,
  "cagem": 21472,
  "caia": 20475,
  "cais": 1969,
  "caju": 20426,
  "cal": 2909,
  "cala": 29098,
  "caldo": 46319,
  "cale": 41443,
  "calhau": 39420,
  "calho": 40659,
  "calipse": 20996,
  "caly": 34864,
  "cam": 2274,
  "cama": 47058,
  "camente": 30284,
  "camento": 24210,
  "caminho": 49413,
  "camp": 22846,
  "campe": 16035,
  "campeonato": 11796,
  "campeÃ£": 21935,
  "campeÃ£o": 9755,
  "campeÃµes": 48571,
  "campista": 35815,
  "campo": 17859,
  "campus": 36992,
  "can": 2781,
  "cana": 12273,
  "canal": 32456,
  "canas": 34708,
  "candida": 31697,
  "cando": 2827,
  "canjo": 28178,
  "cano": 11131,
  "canos": 30339,
  "cant": 7269,
  "cante": 6305,
  "cantes": 26075,
  "canti": 22108,
  "cantil": 23486,
  "canto": 32183,
  "canÃ£": 17784,
  "canÃ§Ã£o": 32885,
  "cao": 31527,
  "cap": 8247,
  "capa": 6702,
  "cape": 27021,
  "capital": 25538,
  "capitÃ£o": 48708,
  "capÃ¡": 32862,
  "car": 1035,
  "cara": 5226,
  "caracter": 34435,
  "caram": 4465,
  "carbone": 29586,
  "card": 27671,
  "cardo": 37099,
  "care": 18113,
  "cares": 32976,
  "careste": 28654,
  "cari": 24897,
  "caria": 15146,
  "cariam": 45861,
  "carias": 26469,
  "cario": 26311,
  "caro": 31452,
  "carpus": 39953,
  "carta": 32786,
  "cartes": 30532,
  "carÃ¡": 31923,
  "carÃ©": 26092,
  "cas": 1245,
  "casa": 22680,
  "case": 38298,
  "casionalmente": 35078,
  "caso": 15226,
  "cass": 10301,
  "casse": 23966,
  "cassem": 34724,
  "cast": 17471,
  "casting": 21095,
  "castle": 28752,
  "cat": 18136,
  "cata": 25977,
  "cate": 28980,
  "cati": 36317,
  "cato": 43954,
  "cats": 47677,
  "catu": 24143,
  "cau": 5291,
  "cault": 40688,
  "caute": 12307,
  "cava": 24092,
  "caval": 32754,
  "cavam": 39946,
  "caÃ§a": 39154,
  "caÃ§Ã£o": 1669,
  "caÃ§Ãµes": 8598,
  "caÃŃ": 35667,
  "cc": 11178,
  "cca": 34935,
  "cci": 14391,
  "ccini": 42928,
  "ccio": 25865,
  "ccles": 39687,
  "cco": 24135,
  "ccus": 44332,
  "ce": 411,
  "cea": 23382,
  "ceae": 8660,
  "ceano": 6511,
  "ceas": 26602,
  "ceb": 5595,
  "cebe": 8423,
  "cebendo": 30216,
  "cebeu": 10955,
  "cebispo": 7109,
  "ced": 2545,
  "ceder": 47296,
  "cedes": 16131,
  "cedeu": 35829,
  "cedor": 24606,
  "cedores": 31696,
  "cedÃ´nia": 43023,
  "cego": 49883,
  "cei": 32774,
  "ceine": 46177,
  "ceira": 26006,
  "ceiro": 20523,
  "ceiros": 40586,
  "ceis": 9483,
  "cel": 1997,
  "celas": 31024,
  "cele": 30878,
  "celino": 21086,
  "cell": 37215,
  "celo": 22512,
  "celular": 30655,
  "cem": 2970,
  "cema": 32265,
  "cemia": 35639,
  "cen": 12644,
  "cena": 20690,
  "cend": 3809,
  "cendente": 27624,
  "cendentes": 39424,
  "cendo": 2217,
  "ceno": 25504,
  "cens": 44684,
  "cent": 3199,
  "centa": 17557,
  "centagem": 14849,
  "centas": 39167,
  "cente": 2721,
  "centemente": 13844,
  "center": 44021,
  "centes": 7513,
  "centista": 16047,
  "centistas": 32319,
  "cento": 38244,
  "centos": 18805,
  "central": 18109,
  "centro": 32820,
  "cenÃ§a": 19876,
  "cep": 6142,
  "ceph": 40221,
  "ceps": 45159,
  "cept": 47125,
  "ceptor": 41843,
  "ceptores": 46570,
  "cepÃ§Ã£o": 18323,
  "cer": 1038,
  "cera": 18549,
  "ceram": 2637,
  "ceras": 32660,
  "cerca": 14275,
  "cerd": 27439,
  "cerdo": 6494,
  "cerdÃ³cio": 28185,
  "cere": 27815,
  "ceres": 29643,
  "ceria": 3709,
  "cerias": 16474,
  "cern": 36285,
  "cero": 11710,
  "certo": 33372,
  "ces": 5617,
  "cesa": 9264,
  "ceslau": 45061,
  "cess": 1503,
  "cesse": 16511,
  "cessem": 34860,
  "cesso": 993,
  "cessor": 11121,
  "cessos": 39162,
  "cessÃ£o": 16367,
  "cester": 24498,
  "cete": 15764,
  "cetes": 29563,
  "ceto": 19772,
  "ceu": 802,
  "cey": 33469,
  "cf": 45081,
  "ch": 617,
  "cha": 2072,
  "chada": 36957,
  "chado": 29364,
  "chae": 43273,
  "chaft": 29173,
  "chain": 32855,
  "chal": 9277,
  "cham": 13053,
  "chamada": 35523,
  "chamado": 28566,
  "chamados": 46337,
  "chamento": 49614,
  "chan": 17552,
  "chand": 40050,
  "change": 37433,
  "char": 19584,
  "chard": 37220,
  "charel": 11819,
  "chas": 6176,
  "chat": 34862,
  "chau": 44805,
  "chave": 16685,
  "chaÃ§a": 40432,
  "che": 2173,
  "checa": 28103,
  "checo": 15228,
  "ched": 45052,
  "chefe": 10300,
  "chegados": 49412,
  "cheira": 40224,
  "chek": 22708,
  "chel": 10943,
  "chem": 31495,
  "chen": 11217,
  "chenko": 34294,
  "cher": 5329,
  "ches": 9314,
  "chester": 9478,
  "chet": 29446,
  "chete": 47620,
  "chetti": 47907,
  "chev": 20870,
  "chevi": 17436,
  "chi": 5954,
  "chia": 22103,
  "child": 43629,
  "chim": 24358,
  "chin": 16745,
  "china": 31148,
  "chine": 49328,
  "chinhos": 44531,
  "chini": 40828,
  "chino": 39322,
  "chio": 25345,
  "chior": 39371,
  "chis": 49606,
  "chman": 49327,
  "chner": 34007,
  "cho": 2030,
  "chool": 36800,
  "chos": 5112,
  "chou": 35924,
  "chov": 39216,
  "chs": 24650,
  "cht": 9897,
  "chu": 6068,
  "chua": 48973,
  "chuelo": 41024,
  "chule": 45184,
  "chus": 39087,
  "chusetts": 12048,
  "chuva": 42315,
  "chwitz": 34217,
  "chy": 26643,
  "chÃ¡": 45037,
  "chÃ£o": 25278,
  "chÃ©": 29661,
  "ci": 339,
  "cia": 472,
  "ciada": 12961,
  "ciadas": 22790,
  "ciado": 3047,
  "ciados": 14416,
  "ciais": 1419,
  "cial": 670,
  "cialmente": 4346,
  "ciam": 6559,
  "cian": 48221,
  "ciana": 16383,
  "ciano": 8214,
  "cianos": 39454,
  "ciante": 46481,
  "ciar": 6682,
  "ciares": 42539,
  "cias": 888,
  "ciasse": 48023,
  "ciaÃ§Ã£o": 2539,
  "ciaÃ§Ãµes": 5412,
  "cibilidade": 40303,
  "cica": 16891,
  "cicaba": 20570,
  "ciclo": 48579,
  "cid": 33981,
  "cida": 2740,
  "cidade": 2487,
  "cidades": 11760,
  "cidas": 7573,
  "cido": 1898,
  "cidos": 4615,
  "cie": 19429,
  "ciedade": 2122,
  "cience": 36821,
  "cient": 19540,
  "ciente": 11941,
  "cientes": 28621,
  "cies": 33283,
  "cif": 17294,
  "cife": 6996,
  "cifer": 37830,
  "cific": 15776,
  "cificado": 39925,
  "cificamente": 34727,
  "cificaÃ§Ã£o": 26173,
  "cigen": 35694,
  "cil": 1787,
  "cila": 19733,
  "cilla": 47264,
  "cim": 35663,
  "cima": 3172,
  "cimal": 32048,
  "cimento": 1047,
  "cimentos": 4001,
  "cin": 12022,
  "cina": 22573,
  "cinas": 48957,
  "cinco": 31980,
  "cind": 19368,
  "cine": 45143,
  "cing": 14241,
  "cinha": 42472,
  "cinho": 36620,
  "cino": 23944,
  "cinoma": 45316,
  "cinto": 47534,
  "cio": 652,
  "cioc": 18498,
  "cion": 507,
  "ciona": 17295,
  "cionada": 12784,
  "cionadas": 20654,
  "cionado": 9365,
  "cionador": 47539,
  "cionados": 14978,
  "cionais": 1712,
  "cional": 685,
  "cionalizaÃ§Ã£o": 18255,
  "cionalmente": 10435,
  "cionam": 41131,
  "cionamento": 23720,
  "cionando": 25149,
  "cionante": 20285,
  "cionantes": 43205,
  "cionar": 9626,
  "cionava": 34855,
  "cione": 42346,
  "ciones": 38064,
  "cionismo": 17435,
  "cionista": 17201,
  "cionistas": 20820,
  "cionou": 11842,
  "cionÃ¡ria": 40827,
  "cionÃ¡rio": 27926,
  "cionÃ¡rios": 30430,
  "cios": 2771,
  "ciosa": 16716,
  "ciosamente": 46603,
  "ciosas": 17703,
  "cioso": 19864,
  "ciosos": 21342,
  "ciou": 12975,
  "cip": 3689,
  "cipa": 8758,
  "cipais": 32373,
  "cipar": 38035,
  "cipaÃ§Ã£o": 10623,
  "cipiente": 21088,
  "cipientes": 35874,
  "cipl": 5340,
  "ciplina": 37231,
  "ciplinar": 21089,
  "ciplinares": 48045,
  "cique": 33780,
  "cir": 12390,
  "circu": 46647,
  "cis": 16560,
  "cisa": 29710,
  "cismo": 31587,
  "ciso": 28025,
  "cista": 43451,
  "cisÃ£o": 28158,
  "cita": 37334,
  "cito": 12040,
  "citos": 13597,
  "citose": 43036,
  "city": 48086,
  "cius": 49953,
  "ciÃ¡rio": 22726,
  "ciÃªncia": 15838,
  "ciÃªncias": 36141,
  "ciÃ³n": 11629,
  "ck": 911,
  "cke": 25616,
  "cken": 42541,
  "cker": 10129,
  "ckers": 28422,
  "cket": 41592,
  "cki": 37863,
  "cking": 32125,
  "ckland": 39375,
  "ckle": 23577,
  "ckles": 28281,
  "ckleton": 35851,
  "ckmin": 40424,
  "cks": 9989,
  "ckstreet": 47213,
  "cky": 12141,
  "cl": 3113,
  "cla": 14663,
  "clam": 30659,
  "clara": 39295,
  "class": 14726,
  "classe": 30762,
  "cle": 2266,
  "clear": 16935,
  "cleares": 42642,
  "cleciano": 29587,
  "cleo": 16769,
  "cles": 32283,
  "clica": 27757,
  "clides": 25484,
  "cliffe": 32076,
  "clipse": 42781,
  "clo": 10962,
  "clore": 16292,
  "clu": 31960,
  "clube": 32872,
  "clus": 26818,
  "clÃ¡ssico": 37032,
  "cm": 10118,
  "cn": 46289,
  "co": 423,
  "coa": 14835,
  "coal": 31374,
  "coat": 38962,
  "cob": 37576,
  "cock": 18640,
  "cocÃ³": 32592,
  "cod": 41447,
  "codice": 44243,
  "coe": 40733,
  "coense": 33555,
  "coin": 20330,
  "col": 3249,
  "cola": 5138,
  "colas": 8507,
  "colate": 20472,
  "cole": 14789,
  "coli": 33295,
  "colina": 48693,
  "colm": 25032,
  "colo": 19130,
  "colomb": 47989,
  "com": 1985,
  "coma": 20486,
  "comandante": 35654,
  "comb": 21163,
  "combe": 44956,
  "combust": 48946,
  "come": 15937,
  "comer": 42286,
  "comissÃ£o": 48469,
  "como": 3275,
  "comp": 5077,
  "compa": 34623,
  "companh": 24123,
  "companha": 40985,
  "companheiro": 47782,
  "comple": 35316,
  "completo": 44028,
  "compos": 30695,
  "computador": 46908,
  "comum": 35081,
  "comun": 8638,
  "comunicaÃ§Ã£o": 49142,
  "comunicaÃ§Ãµes": 13454,
  "con": 971,
  "conc": 11806,
  "concel": 12638,
  "cond": 9579,
  "conde": 22338,
  "cone": 38171,
  "conf": 40643,
  "conha": 25124,
  "conhec": 11942,
  "conhecida": 29063,
  "conhecido": 18486,
  "conhecimento": 39552,
  "coni": 25356,
  "conju": 37062,
  "conjunto": 48229,
  "cono": 23321,
  "conos": 48457,
  "cons": 7641,
  "considera": 21792,
  "constru": 20342,
  "cont": 5430,
  "conte": 16282,
  "continental": 16647,
  "continente": 29432,
  "continu": 40842,
  "contra": 14528,
  "contro": 16961,
  "control": 36877,
  "controle": 44885,
  "cool": 9229,
  "cop": 29165,
  "copa": 13439,
  "cope": 22880,
  "copia": 20444,
  "cor": 5456,
  "cora": 24933,
  "cord": 40907,
  "core": 7511,
  "coreana": 27406,
  "coreano": 19272,
  "coreanos": 39335,
  "coro": 34387,
  "coronel": 21272,
  "corpo": 28712,
  "corre": 14608,
  "correr": 42508,
  "correspo": 47208,
  "cos": 1042,
  "costa": 46487,
  "costas": 31092,
  "cosul": 25869,
  "cot": 40921,
  "cota": 28625,
  "cote": 8418,
  "coteca": 33938,
  "cotes": 15488,
  "cott": 19951,
  "cou": 1429,
  "count": 27711,
  "country": 36975,
  "court": 29426,
  "couver": 20249,
  "cover": 32266,
  "coÃ§o": 13261,
  "cr": 7621,
  "cra": 2599,
  "cracia": 12797,
  "craft": 21802,
  "cran": 11072,
  "crates": 17190,
  "cre": 1203,
  "cream": 29076,
  "cred": 7790,
  "credita": 10504,
  "credo": 23254,
  "creen": 20970,
  "cres": 44629,
  "creve": 23371,
  "crevendo": 22832,
  "crever": 18955,
  "creveram": 44117,
  "creveu": 11137,
  "cri": 1425,
  "cria": 33778,
  "criada": 28286,
  "criado": 29404,
  "criador": 44120,
  "crimin": 11474,
  "crip": 21837,
  "cript": 16958,
  "cripts": 41074,
  "cris": 37175,
  "crist": 16388,
  "crita": 15026,
  "critas": 28753,
  "critic": 14818,
  "crito": 4374,
  "critos": 10899,
  "criÃ§Ã£o": 10853,
  "criÃ§Ãµes": 26919,
  "cro": 4745,
  "cron": 44230,
  "cros": 11570,
  "cross": 42945,
  "cru": 30544,
  "cruz": 18985,
  "crÃ¢nia": 10741,
  "crÃŃ": 24462,
  "cs": 20105,
  "ct": 6078,
  "cta": 10964,
  "ctamente": 49382,
  "ctas": 43828,
  "cte": 8611,
  "ctea": 31824,
  "cter": 1581,
  "ctica": 35892,
  "ction": 14049,
  "cto": 2267,
  "ctor": 5288,
  "ctores": 16713,
  "ctos": 7181,
  "ctura": 28130,
  "ctÃ©ria": 25612,
  "ctÃ©rias": 12282,
  "cu": 928,
  "cua": 43213,
  "cube": 49548,
  "cudo": 45331,
  "cue": 45752,
  "cuja": 41009,
  "cujo": 33962,
  "cul": 1017,
  "cula": 5307,
  "cular": 4306,
  "culares": 9605,
  "culas": 6100,
  "culatura": 42837,
  "culaÃ§Ã£o": 6399,
  "culdade": 3447,
  "cules": 20782,
  "culo": 2275,
  "culos": 2508,
  "culose": 19833,
  "cultura": 17412,
  "culturais": 46436,
  "cultural": 26758,
  "cum": 22951,
  "cun": 15810,
  "cund": 5052,
  "cunho": 37491,
  "cuo": 16963,
  "cur": 15803,
  "cura": 8095,
  "curas": 38503,
  "cure": 29401,
  "curi": 27092,
  "curs": 39444,
  "cursal": 50089,
  "curso": 43881,
  "cus": 13764,
  "cuse": 47010,
  "cut": 39996,
  "cv": 48145,
  "cy": 4741,
  "cz": 35472,
  "czy": 30179,
  "cÃ¡": 8255,
  "cÃ¡n": 49794,
  "cÃ¡vel": 27265,
  "cÃ¢nica": 48146,
  "cÃ£o": 5447,
  "cÃ£s": 19580,
  "cÃ§Ã£o": 3144,
  "cÃ§Ãµes": 9568,
  "cÃ©": 10266,
  "cÃ©l": 39535,
  "cÃ©u": 44685,
  "cÃ©us": 36972,
  "cÃª": 17632,
  "cÃªncia": 14368,
  "cÃªncias": 34590,
  "cÃªncio": 19742,
  "cÃªnt": 41575,
  "cÃªs": 42237,
  "cÃ³": 15829,
  "cÃ³digo": 42709,
  "cÃ³fago": 37811,
  "cÃ³p": 7063,
  "cÃ³pica": 40013,
  "cÃ³pio": 11426,
  "cÃ³pios": 26002,
  "cÃ³via": 26543,
  "cÃ´": 26937,
  "cÃ´nd": 40671,
  "cÃµes": 11986,
  "cÃŃlio": 39986,
  "cÃŃnio": 34136,
  "cÃŃpio": 47791,
  "cÃŃsio": 45210,
  "cÃŃvel": 36543,
  "d": 68,
  "da": 408,
  "dad": 16552,
  "dada": 29455,
  "dadas": 37886,
  "dade": 1165,
  "dades": 4123,
  "dado": 7021,
  "dados": 3352,
  "dafi": 35570,
  "dai": 49471,
  "dais": 48888,
  "dak": 49322,
  "dal": 11405,
  "dale": 18049,
  "dam": 10502,
  "dama": 22767,
  "damente": 9405,
  "dan": 13787,
  "dance": 24058,
  "dando": 23804,
  "dano": 33463,
  "dante": 45746,
  "dap": 2730,
  "dapeste": 25212,
  "dar": 2451,
  "dard": 44900,
  "dares": 40504,
  "das": 711,
  "dasse": 26373,
  "data": 31373,
  "date": 42821,
  "dato": 36116,
  "dava": 36887,
  "day": 11012,
  "daÃ§Ã£o": 8102,
  "daÃ§Ãµes": 35951,
  "daÃŃ": 42535,
  "dd": 17688,
  "de": 393,
  "dea": 44004,
  "deais": 13995,
  "deal": 6309,
  "dec": 23495,
  "deca": 49601,
  "ded": 46605,
  "deen": 34991,
  "def": 23755,
  "defesa": 37168,
  "defin": 31424,
  "deia": 4960,
  "deias": 11652,
  "deira": 18219,
  "deiro": 17816,
  "del": 6500,
  "dele": 41628,
  "dem": 883,
  "dema": 37987,
  "demar": 24208,
  "demo": 41136,
  "democra": 18595,
  "democracia": 43101,
  "democrata": 49367,
  "democratas": 43819,
  "democratizaÃ§Ã£o": 42934,
  "demort": 47133,
  "demos": 23781,
  "den": 2394,
  "denas": 45923,
  "dendo": 11339,
  "denomin": 29818,
  "dent": 19619,
  "dente": 9266,
  "dentes": 19604,
  "dentro": 46938,
  "deo": 43358,
  "deon": 16554,
  "depois": 19613,
  "depu": 25121,
  "deputado": 30567,
  "der": 676,
  "dera": 26436,
  "deral": 1895,
  "deram": 9423,
  "deraÃ§Ã£o": 3880,
  "deres": 5008,
  "deria": 41744,
  "derick": 46880,
  "derma": 50204,
  "derme": 43572,
  "ders": 32948,
  "des": 1201,
  "desa": 31804,
  "descendentes": 48231,
  "desco": 19882,
  "desde": 20834,
  "desenvol": 23224,
  "desh": 41140,
  "design": 20208,
  "dessa": 25531,
  "desse": 6799,
  "desta": 46227,
  "deste": 6056,
  "desto": 49738,
  "destru": 35116,
  "det": 47675,
  "dete": 48739,
  "determin": 22615,
  "determinaÃ§Ã£o": 40026,
  "detto": 43257,
  "deu": 4092,
  "deus": 4873,
  "devido": 31619,
  "dex": 27048,
  "dez": 14883,
  "deÃŃdo": 48740,
  "df": 36413,
  "dge": 26188,
  "dha": 46166,
  "di": 1210,
  "dia": 801,
  "diada": 36096,
  "diado": 30286,
  "diais": 34820,
  "diam": 24064,
  "dian": 16360,
  "diana": 33500,
  "diano": 28692,
  "dianos": 43957,
  "diante": 46748,
  "diantes": 38211,
  "dias": 14732,
  "dic": 1046,
  "dica": 5581,
  "dical": 7940,
  "dicas": 18978,
  "dicaÃ§Ã£o": 13857,
  "dice": 9489,
  "dices": 50038,
  "diche": 49608,
  "dici": 14867,
  "dicial": 27584,
  "dicidade": 41793,
  "dicional": 24235,
  "dicionalmente": 14714,
  "dico": 11904,
  "dicos": 16203,
  "dida": 21579,
  "didata": 37484,
  "dido": 26972,
  "die": 9707,
  "diente": 21859,
  "dier": 32096,
  "dies": 24697,
  "diesel": 43958,
  "dif": 18225,
  "difere": 32087,
  "difusÃ£o": 23776,
  "dig": 8367,
  "dil": 12385,
  "dilo": 35720,
  "dim": 30941,
  "dimens": 30836,
  "din": 6653,
  "dina": 12684,
  "dinand": 26152,
  "dindo": 36621,
  "dine": 47354,
  "ding": 19877,
  "dington": 37427,
  "dinha": 38268,
  "dinho": 32675,
  "dino": 31364,
  "dinÃ¢mica": 17620,
  "dinÃ¢mico": 34231,
  "dio": 765,
  "dios": 1633,
  "diosos": 45499,
  "diou": 46307,
  "diovis": 19930,
  "diovisuais": 45360,
  "diovisual": 24353,
  "dipo": 50041,
  "dique": 48168,
  "dir": 13464,
  "diram": 30652,
  "dire": 8125,
  "direita": 21771,
  "direito": 25767,
  "direitos": 45716,
  "diretor": 22115,
  "dirig": 34823,
  "dis": 8143,
  "disc": 34388,
  "disciplinar": 30953,
  "disco": 35400,
  "dise": 28958,
  "disse": 41205,
  "dist": 15586,
  "dista": 34639,
  "distas": 49587,
  "distrito": 37918,
  "distÃ£o": 41388,
  "dit": 10135,
  "dith": 27633,
  "dition": 48829,
  "dito": 15483,
  "ditos": 16163,
  "diu": 15931,
  "dium": 21518,
  "div": 7707,
  "diversidade": 17535,
  "diz": 19754,
  "diÃ§o": 30549,
  "diÃ§Ã£o": 2809,
  "diÃ§Ãµes": 6289,
  "dle": 16379,
  "dles": 39804,
  "dn": 42184,
  "do": 360,
  "doB": 27482,
  "doce": 37013,
  "dock": 40728,
  "docu": 42340,
  "doeste": 7520,
  "dog": 37336,
  "dois": 22606,
  "dol": 33736,
  "dom": 10328,
  "domin": 49467,
  "domÃ©s": 36163,
  "domÃ©sticos": 42613,
  "don": 7532,
  "dona": 33100,
  "donald": 49460,
  "dong": 39276,
  "dont": 18012,
  "dor": 1053,
  "dora": 5349,
  "dorado": 31493,
  "doras": 13607,
  "dores": 2285,
  "dorf": 20622,
  "doro": 20140,
  "dos": 566,
  "dose": 34242,
  "doso": 9019,
  "dou": 2429,
  "douro": 17561,
  "douros": 43522,
  "doutorado": 46133,
  "down": 8814,
  "download": 22733,
  "downloads": 44092,
  "downs": 17451,
  "dox": 37694,
  "dra": 19286,
  "drama": 31937,
  "dras": 46226,
  "dre": 26997,
  "dri": 42281,
  "dromo": 31983,
  "dru": 40263,
  "drÃº": 44101,
  "drÃºbal": 46531,
  "ds": 9957,
  "dt": 44468,
  "du": 499,
  "dua": 19325,
  "duas": 27116,
  "duaÃ§Ã£o": 10227,
  "dule": 28963,
  "dum": 35506,
  "duo": 47005,
  "duplo": 38874,
  "duque": 19022,
  "duquesa": 33585,
  "dura": 9243,
  "durante": 31465,
  "duras": 18531,
  "dus": 37731,
  "dust": 48580,
  "duto": 16974,
  "dutor": 12545,
  "dutora": 45430,
  "dutos": 39320,
  "duz": 1418,
  "duzida": 26699,
  "duzido": 15949,
  "duzir": 22359,
  "duziu": 21836,
  "duÃ§Ã£o": 2212,
  "duÃ§Ãµes": 11108,
  "duÃŃno": 25030,
  "dy": 4370,
  "dÃ¡": 18248,
  "dÃ£": 19495,
  "dÃ£o": 6613,
  "dÃ©": 49586,
  "dÃ³": 32059,
  "dÃ´": 26877,
  "dÃ´men": 35937,
  "dÃŃ": 36978,
  "e": 69,
  "ea": 24618,
  "eb": 2224,
  "ebbels": 39786,
  "ebola": 33138,
  "ec": 506,
  "ecas": 18937,
  "ecca": 24822,
  "ecem": 8768,
  "ecer": 3766,
  "eceria": 46739,
  "ecess": 1456,
  "ecessem": 45632,
  "ecessÃ£o": 42774,
  "eceu": 15824,
  "ech": 11579,
  "echo": 28828,
  "echtenstein": 37679,
  "ecida": 10345,
  "ecidas": 21515,
  "ecido": 5496,
  "ecidos": 13866,
  "eck": 7037,
  "eco": 48290,
  "ecologia": 46039,
  "econ": 11648,
  "economia": 36730,
  "econÃ´mica": 47336,
  "ecos": 15317,
  "ecraft": 40597,
  "ect": 30625,
  "ecto": 44246,
  "ector": 26091,
  "ecu": 7800,
  "ecÃ§Ã£o": 36185,
  "ed": 554,
  "eda": 6365,
  "edade": 1291,
  "edades": 3473,
  "edas": 7987,
  "edback": 29181,
  "ede": 11554,
  "eden": 44062,
  "eder": 14343,
  "edes": 17162,
  "edi": 21119,
  "edit": 26754,
  "editor": 49104,
  "ediÃ§Ã£o": 45104,
  "ediÃªncia": 18992,
  "edor": 20534,
  "edores": 35160,
  "edoria": 14707,
  "edos": 48370,
  "edro": 12889,
  "eds": 19218,
  "edu": 24016,
  "educaÃ§Ã£o": 45201,
  "edy": 11163,
  "ee": 49588,
  "ef": 25093,
  "eg": 27200,
  "ego": 34954,
  "ei": 361,
  "eias": 2749,
  "eiger": 36823,
  "eigh": 34988,
  "eim": 17564,
  "eimer": 36822,
  "eio": 1661,
  "eios": 6478,
  "eir": 7726,
  "eira": 682,
  "eiramente": 42631,
  "eiras": 1967,
  "eirense": 38838,
  "eirinha": 24565,
  "eirinho": 46676,
  "eirismo": 23852,
  "eirista": 36314,
  "eiro": 584,
  "eiros": 1149,
  "eirÃ£o": 7877,
  "eirÃ³s": 28973,
  "eit": 33127,
  "eita": 1480,
  "eitando": 26728,
  "eitar": 30670,
  "eitas": 3146,
  "eite": 21285,
  "eito": 909,
  "eitos": 1850,
  "eitosa": 43477,
  "eitou": 42041,
  "eitura": 4856,
  "eituras": 32002,
  "eix": 4290,
  "eixa": 35664,
  "eixando": 43323,
  "eixe": 8847,
  "eixes": 8181,
  "eixo": 14899,
  "eixou": 19524,
  "eiÃ§Ã£o": 4608,
  "eiÃ³": 21337,
  "ek": 6374,
  "ekwo": 43807,
  "ekwondo": 44734,
  "el": 304,
  "ela": 864,
  "elagem": 17668,
  "elamente": 14164,
  "elamento": 12877,
  "elan": 46102,
  "eland": 17887,
  "elar": 15139,
  "elaria": 32997,
  "elas": 2384,
  "ele": 703,
  "elec": 35224,
  "eleg": 46184,
  "elei": 44839,
  "eleine": 37532,
  "eleito": 26348,
  "eler": 12565,
  "eles": 1910,
  "elestes": 33348,
  "eletr": 36091,
  "eley": 16622,
  "eleÃ§Ã£o": 33027,
  "elf": 38032,
  "elh": 6143,
  "elha": 25190,
  "elheiro": 19342,
  "elho": 1306,
  "elhos": 6554,
  "eli": 15062,
  "elia": 25351,
  "elier": 37651,
  "elieu": 46293,
  "elim": 34616,
  "eline": 36139,
  "eling": 45370,
  "elis": 31787,
  "elius": 37757,
  "eliz": 5513,
  "elizmente": 13236,
  "ell": 1406,
  "ella": 10337,
  "ellan": 43417,
  "ellar": 48546,
  "elle": 12869,
  "eller": 10862,
  "ellers": 43738,
  "elles": 36110,
  "elli": 7198,
  "elling": 37629,
  "ellite": 39710,
  "ello": 13059,
  "ells": 24762,
  "elly": 8177,
  "elmo": 24179,
  "elo": 934,
  "elodeon": 20869,
  "elos": 3287,
  "els": 7548,
  "elson": 7804,
  "elu": 39540,
  "elulares": 41944,
  "ely": 26419,
  "elyn": 38870,
  "elÃ¡ria": 50101,
  "elÃ¢ndia": 36455,
  "elÃ£o": 49535,
  "elÃ©": 39541,
  "elÃ©trica": 39848,
  "elÃ©trico": 39041,
  "em": 331,
  "ema": 21845,
  "eman": 38097,
  "emas": 4638,
  "ember": 49802,
  "embl": 12738,
  "emble": 3788,
  "embleia": 4287,
  "embleias": 23182,
  "embley": 34311,
  "emblÃ©ia": 14778,
  "embora": 14719,
  "embro": 896,
  "embu": 28225,
  "emen": 47655,
  "emer": 38495,
  "emi": 23251,
  "emia": 3085,
  "emias": 17792,
  "emin": 1989,
  "emira": 36513,
  "emo": 10113,
  "emon": 26828,
  "emonte": 38836,
  "emos": 5892,
  "emp": 20524,
  "emplo": 16380,
  "emplos": 14545,
  "empre": 33439,
  "empres": 38417,
  "empresa": 47183,
  "ems": 49099,
  "emundo": 32752,
  "emy": 13022,
  "emÃ©rito": 46363,
  "emÃªn": 38536,
  "emÃªnida": 45079,
  "en": 322,
  "ena": 1027,
  "enal": 16338,
  "enamento": 8954,
  "enas": 745,
  "enato": 30226,
  "enau": 48679,
  "enaÃ§Ãµes": 42871,
  "enberg": 16072,
  "enburg": 27191,
  "enca": 42039,
  "ence": 7123,
  "ences": 22003,
  "enci": 4223,
  "encia": 3440,
  "enciada": 26945,
  "enciadas": 43589,
  "enciado": 7032,
  "enciados": 33213,
  "enciais": 9128,
  "encial": 5289,
  "encialmente": 28402,
  "enciamento": 45951,
  "enciar": 25214,
  "encias": 28272,
  "enciatura": 34118,
  "enciou": 13583,
  "encont": 43950,
  "ency": 26486,
  "end": 3902,
  "ende": 10034,
  "endo": 1853,
  "ene": 2002,
  "enegger": 41755,
  "eneidade": 41274,
  "enenses": 43719,
  "ener": 16435,
  "energia": 40669,
  "enerys": 32769,
  "enes": 16449,
  "eney": 42492,
  "eng": 12714,
  "engo": 35404,
  "enh": 1308,
  "enha": 11533,
  "enharia": 44069,
  "enhas": 23008,
  "enheim": 27166,
  "enho": 9750,
  "enhor": 17477,
  "enhos": 16266,
  "enhum": 32664,
  "enhuma": 40787,
  "eni": 39588,
  "enix": 16756,
  "enko": 30451,
  "enn": 3228,
  "enna": 38625,
  "enne": 13915,
  "ennes": 25230,
  "enny": 36907,
  "eno": 1575,
  "enomin": 23932,
  "enor": 49875,
  "enos": 2884,
  "enosa": 45928,
  "enove": 19432,
  "enquanto": 33779,
  "enredo": 33951,
  "ens": 605,
  "ensa": 9761,
  "ensas": 16444,
  "ense": 1551,
  "ensei": 25282,
  "enses": 4783,
  "ensidade": 34815,
  "ensis": 14847,
  "ensiva": 25075,
  "ensivo": 38164,
  "enso": 4965,
  "enson": 21424,
  "ensor": 50115,
  "ensores": 11020,
  "ensos": 21416,
  "ensta": 45992,
  "enstein": 21305,
  "ensÃ£o": 2962,
  "ensÃµes": 34091,
  "ensÃŃvel": 26620,
  "ent": 382,
  "enta": 1107,
  "entada": 41989,
  "entado": 27551,
  "entais": 12197,
  "ental": 3874,
  "entar": 28675,
  "entas": 19275,
  "ente": 526,
  "entemente": 2216,
  "entenÃ¡rio": 45936,
  "enter": 48446,
  "entes": 757,
  "enthal": 46540,
  "entia": 49880,
  "entin": 30088,
  "entista": 33838,
  "entistas": 45868,
  "ento": 38953,
  "entor": 32804,
  "entos": 2104,
  "entou": 5816,
  "entre": 5371,
  "entro": 6840,
  "ents": 34533,
  "entu": 2296,
  "entuais": 49688,
  "entucky": 18199,
  "entura": 9207,
  "enture": 35233,
  "entÃ£o": 19070,
  "envol": 5495,
  "enz": 11343,
  "enza": 20565,
  "enzie": 21037,
  "enzo": 33388,
  "enÃ§a": 1716,
  "enÃ§as": 5502,
  "enÃ§o": 25889,
  "enÃ§Ã£o": 24258,
  "eo": 46596,
  "ep": 6846,
  "equ": 17425,
  "equivalente": 38449,
  "er": 269,
  "era": 493,
  "eraba": 27655,
  "erada": 14477,
  "erado": 10683,
  "erador": 33924,
  "erados": 27745,
  "erais": 2863,
  "eral": 850,
  "eram": 3894,
  "eran": 36354,
  "erante": 7238,
  "erantes": 23987,
  "erar": 6144,
  "eration": 21561,
  "erato": 34272,
  "eraÃ§Ã£o": 4047,
  "ere": 624,
  "eredo": 42259,
  "erem": 5334,
  "eremias": 37107,
  "eren": 33811,
  "erence": 30183,
  "erente": 13193,
  "erentes": 22691,
  "eres": 26290,
  "erg": 3367,
  "eri": 21773,
  "eria": 2053,
  "eriais": 13465,
  "erial": 4008,
  "erianos": 32453,
  "erias": 17650,
  "eric": 2112,
  "erical": 42303,
  "erico": 47531,
  "ericÃ³rdia": 14103,
  "erie": 41671,
  "erife": 21523,
  "erina": 46728,
  "ering": 29879,
  "ermo": 28685,
  "ern": 12259,
  "erno": 42997,
  "ero": 1170,
  "erokee": 48613,
  "eron": 10275,
  "eroporto": 4630,
  "eros": 5546,
  "erosidade": 38884,
  "erou": 24884,
  "erra": 741,
  "errado": 16060,
  "errou": 9333,
  "ers": 546,
  "ersch": 46741,
  "erson": 4546,
  "ersÃ£o": 26904,
  "ert": 16401,
  "erta": 4881,
  "erte": 36510,
  "erto": 3658,
  "ertos": 7339,
  "erv": 1432,
  "erva": 2311,
  "ervador": 22448,
  "ervadores": 42099,
  "ervam": 19322,
  "ervas": 42873,
  "ervatÃ³rio": 11745,
  "ervaÃ§Ã£o": 3819,
  "erve": 22876,
  "erver": 42759,
  "ervos": 33376,
  "ery": 15659,
  "erÃ¡vel": 25575,
  "es": 272,
  "esa": 927,
  "esar": 1372,
  "esas": 3574,
  "esc": 3697,
  "esca": 20372,
  "escal": 45147,
  "escala": 49621,
  "escente": 7811,
  "escentes": 12658,
  "esco": 9001,
  "escol": 29125,
  "escola": 31043,
  "escolar": 44220,
  "escreveu": 28043,
  "escri": 45423,
  "escrita": 35164,
  "escrito": 24686,
  "escu": 33920,
  "escuro": 45893,
  "escÃªncia": 32298,
  "ese": 2533,
  "esel": 16164,
  "eses": 1720,
  "esh": 39490,
  "esia": 6673,
  "esias": 25875,
  "esis": 14476,
  "esley": 50191,
  "eso": 16175,
  "esp": 8279,
  "espa": 15427,
  "espacial": 29869,
  "espanh": 35191,
  "espaÃ§o": 36577,
  "espe": 14780,
  "espec": 40774,
  "especial": 43098,
  "especialmente": 21658,
  "espera": 8591,
  "esposa": 32699,
  "espÃ©ci": 15389,
  "espÃ©cie": 48860,
  "esquer": 40105,
  "esquerda": 25656,
  "esquerdo": 45208,
  "ess": 616,
  "essa": 2152,
  "essamento": 10350,
  "essas": 8190,
  "esse": 1338,
  "essee": 15015,
  "essel": 41268,
  "essem": 4432,
  "essenta": 14002,
  "esses": 10122,
  "essex": 46889,
  "essim": 34695,
  "ession": 48894,
  "essional": 36389,
  "essions": 32479,
  "essivo": 35076,
  "esso": 586,
  "essor": 2407,
  "essora": 25855,
  "essores": 21614,
  "essoria": 23725,
  "essÃ£o": 4470,
  "essÃ©s": 43206,
  "essÃµes": 7215,
  "est": 809,
  "esta": 1116,
  "estabelec": 33557,
  "estad": 36458,
  "estada": 19813,
  "estade": 21203,
  "estado": 11847,
  "estados": 29166,
  "estadunidense": 49934,
  "estal": 35072,
  "estamento": 8687,
  "estar": 9978,
  "estas": 9996,
  "estava": 48681,
  "estaÃ§Ã£o": 14741,
  "estaÃ§Ãµes": 46489,
  "este": 800,
  "ester": 4633,
  "estern": 16896,
  "estes": 9412,
  "esti": 29193,
  "estial": 25755,
  "estidade": 38309,
  "estil": 45798,
  "estilo": 38239,
  "estima": 26879,
  "estina": 8615,
  "estino": 12345,
  "estinos": 31129,
  "estiv": 2728,
  "estival": 2844,
  "esto": 8006,
  "estos": 46357,
  "estou": 16795,
  "estra": 4605,
  "estrada": 24014,
  "estradas": 36527,
  "estras": 25222,
  "estre": 3815,
  "estreia": 35737,
  "estrel": 27929,
  "estrela": 34119,
  "estrelou": 43046,
  "estres": 13629,
  "estro": 10260,
  "estru": 5079,
  "estrutura": 5972,
  "estruturas": 19752,
  "estu": 36624,
  "estyle": 45330,
  "estÃ¡": 33042,
  "estÃ¡vel": 35956,
  "estÃ£o": 2283,
  "estÃ©s": 43465,
  "estÃµes": 4536,
  "esus": 25056,
  "esuÃŃ": 9464,
  "et": 848,
  "eta": 2826,
  "etada": 45288,
  "etano": 8854,
  "etas": 16880,
  "ete": 31365,
  "eter": 45735,
  "eth": 21071,
  "ethe": 29399,
  "ether": 25404,
  "eti": 42282,
  "etisa": 32513,
  "etnam": 21144,
  "eto": 10942,
  "eton": 45107,
  "etooth": 47569,
  "etos": 28926,
  "ets": 13213,
  "etsu": 34149,
  "ett": 18742,
  "etta": 17057,
  "ette": 10640,
  "etti": 17695,
  "etto": 37893,
  "ety": 8546,
  "etz": 16386,
  "etzsche": 28469,
  "etÃ¡ria": 17051,
  "etÃ¡rias": 37737,
  "etÃ¡rio": 15771,
  "etÃ¡rios": 31268,
  "etÃ©": 40512,
  "etÃª": 20908,
  "eu": 13884,
  "euro": 17377,
  "europeia": 43237,
  "europeias": 49020,
  "europeu": 41898,
  "eus": 25800,
  "ev": 8531,
  "eva": 45211,
  "eviÄĩ": 35751,
  "ex": 1994,
  "exceto": 24811,
  "exclu": 41547,
  "execu": 31226,
  "executivo": 42805,
  "exemplo": 44365,
  "existente": 46196,
  "existentes": 46495,
  "experi": 42204,
  "explo": 49122,
  "extended": 26988,
  "extra": 46753,
  "exÃ£o": 44319,
  "ey": 12829,
  "eyasu": 40131,
  "ez": 536,
  "eza": 3152,
  "ezar": 37093,
  "ezas": 13517,
  "eze": 32595,
  "ezer": 23496,
  "ezes": 14852,
  "ezo": 45621,
  "f": 70,
  "fa": 1254,
  "fabe": 17951,
  "fabr": 49119,
  "fac": 31774,
  "face": 8693,
  "faces": 28696,
  "fada": 33627,
  "fadas": 44968,
  "fado": 43054,
  "fael": 8742,
  "fag": 34845,
  "fago": 24784,
  "fair": 33931,
  "faixa": 48099,
  "fal": 6987,
  "fala": 23214,
  "falantes": 40860,
  "falda": 38940,
  "falecido": 45770,
  "falia": 47211,
  "fall": 23129,
  "falo": 23724,
  "fam": 14331,
  "famÃŃlia": 20866,
  "famÃŃlias": 45657,
  "fan": 12485,
  "fanato": 27226,
  "fano": 24042,
  "fant": 39314,
  "fantas": 37049,
  "fante": 11323,
  "fantes": 22681,
  "faque": 29403,
  "far": 7106,
  "fard": 48435,
  "fare": 36240,
  "fariz": 46762,
  "fas": 9912,
  "fase": 10075,
  "fast": 26229,
  "fat": 27337,
  "fato": 12660,
  "fatos": 15281,
  "fax": 45756,
  "faz": 29950,
  "fazendo": 34914,
  "fazer": 25857,
  "fe": 886,
  "fec": 17483,
  "fect": 30239,
  "fego": 10298,
  "fei": 7841,
  "feira": 7663,
  "feiras": 20442,
  "feita": 26775,
  "feito": 9008,
  "feitor": 41807,
  "feitos": 49656,
  "feiÃ§o": 11532,
  "feiÃ§oamento": 48852,
  "fel": 9456,
  "feld": 13105,
  "fell": 41576,
  "feller": 30219,
  "fem": 40036,
  "femin": 39356,
  "fen": 19806,
  "fer": 843,
  "fera": 4571,
  "feras": 11419,
  "fere": 14686,
  "feres": 23464,
  "ferida": 47545,
  "ferido": 36048,
  "ferindo": 45043,
  "ferir": 42957,
  "feriu": 31091,
  "fero": 35271,
  "ferra": 33101,
  "ferrato": 47227,
  "ferro": 28770,
  "ferves": 50119,
  "ferÃªncia": 3748,
  "ferÃªncias": 27527,
  "fes": 6921,
  "feso": 29917,
  "fest": 33020,
  "fet": 49461,
  "feta": 25894,
  "feto": 30597,
  "feu": 27057,
  "fez": 40680,
  "ff": 1742,
  "ffa": 37400,
  "ffe": 14793,
  "ffee": 46580,
  "ffel": 38473,
  "ffen": 28461,
  "ffer": 17416,
  "ffield": 28462,
  "ffin": 37667,
  "fford": 32088,
  "ffrey": 22079,
  "ffs": 8730,
  "ffy": 36220,
  "fi": 10779,
  "fia": 1405,
  "fianÃ§a": 34759,
  "fias": 18380,
  "fic": 3981,
  "fica": 1380,
  "ficada": 41510,
  "ficado": 48039,
  "ficamente": 6171,
  "ficar": 32299,
  "ficas": 22132,
  "ficaÃ§Ã£o": 10004,
  "ficaÃ§Ãµes": 10646,
  "fice": 43253,
  "fici": 2695,
  "ficiente": 12073,
  "ficientes": 17507,
  "ficiÃªncia": 14631,
  "fico": 16171,
  "ficos": 23139,
  "ficÃ§Ã£o": 37772,
  "fiel": 39697,
  "field": 6561,
  "figu": 22244,
  "figuraÃ§Ã£o": 46159,
  "fil": 3303,
  "fila": 36659,
  "filas": 49618,
  "file": 43348,
  "filha": 35928,
  "filho": 23195,
  "filhos": 42213,
  "filia": 23125,
  "film": 49066,
  "filme": 21485,
  "filmes": 44989,
  "filo": 47175,
  "filos": 21862,
  "fim": 7706,
  "fin": 7559,
  "fina": 27064,
  "finais": 30594,
  "final": 11615,
  "finger": 49714,
  "fino": 29777,
  "fio": 21294,
  "fir": 13221,
  "fire": 33253,
  "firo": 45144,
  "fis": 27157,
  "fish": 39987,
  "fka": 37854,
  "fl": 12879,
  "fla": 27496,
  "flash": 43405,
  "fle": 20082,
  "flix": 17223,
  "flo": 30063,
  "flor": 44156,
  "flores": 32972,
  "flu": 18726,
  "fly": 26024,
  "fman": 34527,
  "fo": 1886,
  "fobia": 23911,
  "fogo": 8802,
  "foi": 12948,
  "fol": 13955,
  "folha": 48414,
  "folk": 27669,
  "fon": 3020,
  "fone": 13310,
  "fones": 16947,
  "fonia": 10973,
  "fonias": 43971,
  "fonista": 40358,
  "fonso": 4732,
  "fonte": 23181,
  "foot": 38877,
  "for": 625,
  "fora": 17233,
  "foram": 34790,
  "foras": 33536,
  "force": 30512,
  "ford": 4328,
  "fore": 29969,
  "foria": 40509,
  "fork": 36744,
  "form": 1893,
  "forma": 1016,
  "formada": 20002,
  "formado": 24266,
  "formance": 17741,
  "formas": 8811,
  "formaÃ§Ã£o": 9395,
  "formaÃ§Ãµes": 17289,
  "forme": 3704,
  "former": 42630,
  "formes": 36356,
  "formou": 5715,
  "formula": 4443,
  "formÃ¡tica": 24558,
  "foro": 13730,
  "foros": 29515,
  "fort": 15752,
  "forte": 22208,
  "fortes": 40383,
  "fortun": 45489,
  "forza": 45557,
  "forÃ§a": 32480,
  "fos": 6637,
  "fosfato": 48637,
  "fou": 33464,
  "four": 47792,
  "fox": 31878,
  "fr": 2572,
  "fra": 4360,
  "frag": 28861,
  "frame": 45060,
  "franc": 19678,
  "francÃªs": 44888,
  "fraria": 41762,
  "fre": 1315,
  "fred": 26952,
  "fredo": 19243,
  "free": 39253,
  "frenia": 35483,
  "fres": 28786,
  "frey": 14684,
  "fri": 13451,
  "frica": 3256,
  "fried": 22221,
  "friend": 41428,
  "fro": 16971,
  "front": 41812,
  "fronte": 43287,
  "fru": 21057,
  "fs": 14000,
  "fsky": 50183,
  "ft": 2379,
  "fts": 41528,
  "ftwa": 14219,
  "ftwaffe": 24090,
  "ftware": 5453,
  "ftwares": 20873,
  "fu": 7705,
  "ful": 19005,
  "fun": 18918,
  "fund": 7483,
  "funda": 27550,
  "fundada": 38858,
  "fundado": 45397,
  "fundador": 19842,
  "funk": 31663,
  "funÃ§Ã£o": 29819,
  "fur": 27113,
  "furt": 15619,
  "fus": 24136,
  "futebol": 18052,
  "futebolista": 19716,
  "futuro": 40756,
  "fÃ¡": 19695,
  "fÃ¡lia": 39196,
  "fÃ£o": 15468,
  "fÃ©": 5398,
  "fÃ©u": 9629,
  "fÃ©us": 25638,
  "fÃ³b": 33549,
  "fÃ³lio": 31472,
  "fÃ³nica": 47724,
  "fÃ´nica": 13211,
  "fÃµes": 43882,
  "fÃ¼hrer": 47292,
  "fÃŃcio": 39195,
  "fÃŃs": 24437,
  "fÃŃsica": 18754,
  "fÃŃsico": 37212,
  "g": 71,
  "ga": 542,
  "gaard": 38426,
  "gaba": 23835,
  "gababes": 42519,
  "gacia": 21730,
  "gad": 26664,
  "gada": 3345,
  "gadas": 6770,
  "gado": 1737,
  "gador": 7601,
  "gadores": 10165,
  "gados": 3936,
  "gadura": 32873,
  "gae": 18563,
  "gai": 34030,
  "gais": 6364,
  "gal": 1271,
  "gala": 23160,
  "gali": 42914,
  "gall": 37839,
  "galo": 17791,
  "gam": 7148,
  "gama": 37579,
  "game": 16762,
  "gamento": 3705,
  "gamentos": 18513,
  "games": 44233,
  "gamo": 30618,
  "gan": 969,
  "gana": 35560,
  "ganda": 7687,
  "gando": 4449,
  "gang": 22302,
  "ganismo": 30886,
  "ganismos": 41049,
  "ganistÃ£o": 13402,
  "gano": 36007,
  "gans": 48977,
  "ganta": 21040,
  "gante": 11344,
  "gantes": 18650,
  "ganÃ§a": 11233,
  "gar": 826,
  "gara": 12802,
  "garam": 11908,
  "gard": 23506,
  "garda": 41452,
  "gare": 36118,
  "gares": 4353,
  "garia": 39001,
  "garo": 9617,
  "garos": 14521,
  "garra": 35864,
  "gart": 25707,
  "gary": 39668,
  "garyen": 46882,
  "gas": 1652,
  "gascar": 28011,
  "gasse": 24723,
  "gat": 11496,
  "gata": 14772,
  "gate": 14739,
  "gato": 38842,
  "gau": 30977,
  "gava": 8384,
  "gavam": 17487,
  "gawa": 17204,
  "gay": 43900,
  "gaz": 10419,
  "gazine": 12227,
  "gaÃ§o": 37377,
  "gaÃ§Ã£o": 1982,
  "gaÃ§Ãµes": 5341,
  "gby": 12736,
  "ge": 767,
  "gebra": 21239,
  "ged": 37614,
  "gedor": 45479,
  "gee": 49330,
  "geiro": 48436,
  "geiros": 49870,
  "geis": 33266,
  "gel": 6880,
  "gem": 824,
  "gen": 3871,
  "gena": 33945,
  "gend": 46807,
  "gene": 42132,
  "general": 12173,
  "genes": 49133,
  "genia": 37709,
  "gens": 1586,
  "genstein": 49407,
  "gent": 2860,
  "gente": 18284,
  "gentes": 33944,
  "gentina": 3941,
  "gento": 13737,
  "gentos": 36241,
  "geo": 48604,
  "ger": 2366,
  "gera": 49945,
  "geral": 7048,
  "gerald": 30520,
  "geralmente": 20939,
  "gers": 15469,
  "ges": 4254,
  "gestÃ£o": 42993,
  "get": 22342,
  "geu": 7783,
  "gg": 9942,
  "gge": 44232,
  "gged": 46576,
  "ggenheim": 46332,
  "gger": 21950,
  "ggio": 30298,
  "ggy": 25203,
  "gh": 3408,
  "ghe": 39445,
  "ghes": 19918,
  "ghi": 44866,
  "ghlin": 47911,
  "ght": 11882,
  "ghter": 39470,
  "ghts": 30964,
  "gi": 2270,
  "gia": 1196,
  "gial": 22597,
  "giam": 49869,
  "gias": 8129,
  "gica": 4045,
  "gicas": 12119,
  "gico": 6404,
  "gicos": 9964,
  "gide": 43555,
  "gido": 41577,
  "gie": 13696,
  "gigante": 41261,
  "gil": 9718,
  "gin": 4652,
  "gina": 21747,
  "ginas": 48078,
  "gindo": 32197,
  "gins": 36855,
  "gio": 1778,
  "gios": 4676,
  "gip": 40068,
  "gir": 11088,
  "girl": 20625,
  "gis": 22443,
  "gista": 46355,
  "gium": 48987,
  "gl": 14817,
  "gle": 47052,
  "glia": 36479,
  "glic": 32651,
  "glio": 42037,
  "glo": 25992,
  "gma": 14098,
  "gn": 2402,
  "gna": 10708,
  "gnaÃ§Ã£o": 33483,
  "gne": 21490,
  "gni": 12720,
  "gniÃ§Ã£o": 44653,
  "gno": 7830,
  "gnos": 12651,
  "go": 462,
  "goa": 37092,
  "goga": 28457,
  "gogia": 22576,
  "gol": 14564,
  "gomery": 24261,
  "gon": 2254,
  "gonais": 34428,
  "gonal": 19391,
  "gonha": 12808,
  "gonhas": 36290,
  "gono": 18511,
  "gonos": 42356,
  "gor": 6076,
  "gora": 2225,
  "goras": 26274,
  "gore": 43727,
  "gorit": 8394,
  "gos": 1379,
  "gosa": 40314,
  "gosto": 29924,
  "got": 32999,
  "gou": 2965,
  "gov": 39012,
  "gover": 8580,
  "govern": 48255,
  "governa": 27516,
  "governador": 13222,
  "governamental": 46931,
  "governo": 29573,
  "gow": 24181,
  "goza": 47432,
  "goÃ§a": 38344,
  "gr": 10019,
  "gra": 649,
  "grada": 27642,
  "grado": 14711,
  "gradu": 39250,
  "graduaÃ§Ã£o": 12902,
  "graf": 4699,
  "grafa": 25183,
  "grafia": 3065,
  "grafias": 18654,
  "grafista": 48395,
  "grafo": 6330,
  "grafos": 11805,
  "gram": 9719,
  "grama": 1209,
  "gramas": 17152,
  "gran": 42953,
  "grand": 26851,
  "grande": 17317,
  "grandense": 37646,
  "grandes": 41008,
  "grano": 46685,
  "graph": 17910,
  "graphy": 39372,
  "grave": 35409,
  "gre": 953,
  "gredi": 17004,
  "gregaÃ§Ã£o": 9708,
  "greja": 1358,
  "grejas": 5146,
  "greme": 45878,
  "gren": 28934,
  "gress": 9192,
  "gresso": 4056,
  "gressÃ£o": 46290,
  "gri": 12474,
  "gridade": 17872,
  "grim": 48659,
  "grima": 26576,
  "grimas": 21917,
  "grino": 29061,
  "gro": 4660,
  "gros": 39988,
  "grossense": 38234,
  "grou": 6320,
  "ground": 13707,
  "gru": 23915,
  "grupo": 17503,
  "grupos": 30142,
  "grÃ¡": 39000,
  "grÃ¡fica": 5385,
  "grÃ¡ficas": 11351,
  "grÃ¡fico": 6897,
  "grÃ¡ficos": 12856,
  "gs": 6865,
  "gt": 40102,
  "gu": 344,
  "gua": 1009,
  "guage": 32285,
  "guai": 4981,
  "guaia": 13806,
  "guaio": 15321,
  "guaios": 23223,
  "guape": 42001,
  "guar": 13081,
  "guarani": 48155,
  "guard": 20630,
  "guarda": 10652,
  "guardar": 48062,
  "guardas": 42900,
  "guari": 42899,
  "guas": 2653,
  "guaÃ§u": 29737,
  "guchi": 33391,
  "gue": 1599,
  "guei": 27466,
  "gueira": 8292,
  "gueiras": 25192,
  "gueiro": 9474,
  "gueiros": 26174,
  "guel": 20265,
  "guela": 36590,
  "guem": 32093,
  "guense": 40549,
  "guer": 15068,
  "guera": 29265,
  "guerite": 40951,
  "guerra": 13354,
  "gues": 2171,
  "guesa": 45616,
  "guesas": 49206,
  "guesia": 3907,
  "guesias": 13321,
  "guet": 27339,
  "guete": 49408,
  "guetÃ¡": 35819,
  "guez": 11288,
  "gui": 15104,
  "guia": 13325,
  "guias": 34477,
  "guinho": 28788,
  "guitar": 17845,
  "guitarra": 23138,
  "guitarrista": 41713,
  "gula": 44231,
  "gum": 22388,
  "gun": 14925,
  "guna": 16969,
  "gunato": 32565,
  "gundes": 30784,
  "guo": 33039,
  "gur": 25536,
  "gura": 7786,
  "gus": 3309,
  "guson": 31669,
  "gut": 47120,
  "guy": 49466,
  "guÃ¡": 14702,
  "guÃªs": 34532,
  "gy": 14540,
  "gÃ¡": 19449,
  "gÃ¡ria": 11639,
  "gÃ¡s": 29711,
  "gÃ¡scar": 46848,
  "gÃ¡veis": 45862,
  "gÃ¡vel": 27393,
  "gÃ¢ncia": 36622,
  "gÃ£": 46597,
  "gÃ£o": 3485,
  "gÃ£os": 5697,
  "gÃ©": 16512,
  "gÃ©n": 21414,
  "gÃ©nio": 30969,
  "gÃ©s": 30081,
  "gÃªn": 7897,
  "gÃªncia": 13025,
  "gÃªncias": 40961,
  "gÃªnero": 23666,
  "gÃªneros": 40713,
  "gÃªnese": 31629,
  "gÃªnica": 45187,
  "gÃªnico": 46012,
  "gÃªnicos": 35970,
  "gÃªnio": 7623,
  "gÃ³n": 48958,
  "gÃµes": 16464,
  "h": 72,
  "ha": 368,
  "hab": 21733,
  "habita": 32242,
  "had": 16966,
  "hada": 4534,
  "hadas": 9065,
  "hado": 2999,
  "hador": 31158,
  "hadora": 23573,
  "hadoras": 23143,
  "hadores": 34023,
  "hados": 7024,
  "hael": 3833,
  "hai": 16267,
  "hail": 19355,
  "hain": 48666,
  "hak": 43459,
  "hal": 6053,
  "hala": 45549,
  "hall": 26507,
  "halt": 47562,
  "ham": 671,
  "hama": 30391,
  "hamas": 32223,
  "hame": 38271,
  "hamento": 8942,
  "hammad": 21982,
  "hammed": 32429,
  "hamos": 27467,
  "han": 2536,
  "hana": 34562,
  "hand": 40148,
  "hando": 7343,
  "hang": 20238,
  "hani": 47201,
  "hank": 42963,
  "hanna": 20163,
  "hao": 36738,
  "har": 2434,
  "hara": 14788,
  "haram": 12207,
  "hard": 12916,
  "hardt": 37391,
  "hares": 5651,
  "haria": 46859,
  "harma": 31970,
  "hart": 28585,
  "has": 949,
  "hasa": 44485,
  "hashi": 34066,
  "hasse": 31067,
  "hat": 5723,
  "hau": 28006,
  "haus": 15081,
  "hausen": 23410,
  "hav": 36113,
  "hava": 15673,
  "haven": 47670,
  "havior": 45732,
  "haw": 14916,
  "hawk": 43867,
  "hawks": 38526,
  "hay": 32475,
  "haÃ§o": 39944,
  "he": 418,
  "head": 12438,
  "heads": 47770,
  "heart": 48967,
  "hec": 771,
  "hece": 23628,
  "hecendo": 36456,
  "hecer": 23092,
  "heceu": 38342,
  "hecida": 31037,
  "hecido": 21461,
  "hecimento": 14195,
  "heck": 25877,
  "hecos": 15391,
  "hecoslovÃ¡quia": 19610,
  "hed": 24190,
  "hee": 38037,
  "heed": 25693,
  "hei": 9029,
  "heim": 15183,
  "heimer": 27312,
  "heira": 14384,
  "heiras": 40452,
  "heiro": 16528,
  "heiros": 12788,
  "hel": 9033,
  "helm": 15158,
  "hem": 14285,
  "hembi": 49016,
  "hen": 7445,
  "hena": 29656,
  "heng": 32276,
  "hense": 22192,
  "her": 1231,
  "hera": 35142,
  "here": 15831,
  "heres": 2180,
  "herine": 16883,
  "herme": 5455,
  "hero": 43108,
  "hers": 33999,
  "herty": 34247,
  "herÃ³i": 22009,
  "herÃ³is": 22202,
  "hes": 2813,
  "hester": 36832,
  "het": 47004,
  "heta": 22837,
  "hetas": 33040,
  "heu": 17102,
  "hey": 38676,
  "hi": 4006,
  "hia": 3011,
  "hiago": 17083,
  "hib": 42381,
  "hid": 40908,
  "hido": 41578,
  "hidro": 31805,
  "hiko": 44157,
  "hil": 48581,
  "hill": 28271,
  "him": 25267,
  "hima": 24485,
  "hin": 15796,
  "hine": 39769,
  "hip": 14779,
  "hir": 34771,
  "hira": 47235,
  "hire": 14438,
  "hiro": 30569,
  "his": 40865,
  "hist": 11338,
  "histÃ³ria": 24337,
  "histÃ³rica": 47094,
  "histÃ³rico": 42077,
  "histÃ³ricos": 38330,
  "hit": 26055,
  "hito": 33177,
  "hl": 10202,
  "hler": 35561,
  "hly": 40037,
  "hm": 23470,
  "hman": 25668,
  "hmer": 48291,
  "hn": 1838,
  "hne": 37949,
  "hner": 38144,
  "hns": 6323,
  "ho": 385,
  "hod": 48011,
  "hoe": 35665,
  "hof": 30529,
  "hoff": 40871,
  "hog": 38422,
  "hoje": 13355,
  "hol": 14951,
  "hold": 31736,
  "holm": 43544,
  "hom": 33680,
  "homa": 20969,
  "home": 31086,
  "homem": 22614,
  "homens": 33923,
  "hon": 10146,
  "hony": 11102,
  "hoo": 25194,
  "hood": 35922,
  "hop": 11799,
  "hops": 40732,
  "hor": 1019,
  "hora": 3254,
  "horas": 30744,
  "hore": 33681,
  "hores": 12540,
  "horn": 32556,
  "hort": 49398,
  "horÃ¡rio": 41453,
  "hos": 811,
  "hosa": 27732,
  "hosas": 35603,
  "hoso": 38467,
  "host": 20292,
  "hot": 41734,
  "hoto": 29825,
  "hotos": 44476,
  "hou": 2592,
  "house": 11808,
  "hout": 25792,
  "hoven": 20473,
  "how": 1817,
  "hower": 32817,
  "hp": 47293,
  "hr": 8884,
  "hra": 35785,
  "hrmacht": 31252,
  "hs": 28618,
  "ht": 2084,
  "html": 32735,
  "hton": 37050,
  "hts": 41040,
  "htt": 12033,
  "http": 15787,
  "https": 25052,
  "hu": 6287,
  "hua": 13873,
  "hue": 45678,
  "hueta": 47922,
  "hum": 38098,
  "huma": 29850,
  "human": 25489,
  "humana": 49247,
  "humano": 49026,
  "humanos": 37981,
  "humo": 37245,
  "hurst": 45082,
  "hus": 27825,
  "hy": 8448,
  "hya": 46167,
  "hyth": 28520,
  "hythm": 32870,
  "hyun": 29082,
  "hÃ¡": 13106,
  "hÃ£": 5422,
  "hÃ£o": 2554,
  "hÃ©": 37615,
  "hÃ©u": 49529,
  "hÃ©us": 29751,
  "hÃµes": 1352,
  "hÃŃ": 49715,
  "hÅį": 47656,
  "i": 73,
  "ia": 281,
  "iabÃ¡": 19344,
  "iac": 39448,
  "iaceae": 46359,
  "iada": 4587,
  "iadamente": 45796,
  "iadas": 12647,
  "iado": 2571,
  "iador": 23458,
  "iadora": 48147,
  "iadores": 17293,
  "iados": 5058,
  "iae": 38157,
  "iago": 6034,
  "iagu": 39538,
  "iah": 34884,
  "iais": 2882,
  "ial": 585,
  "iales": 46951,
  "iam": 1028,
  "iami": 10587,
  "ian": 1874,
  "iana": 1808,
  "ianas": 8459,
  "iando": 18899,
  "iane": 21017,
  "iang": 13956,
  "iani": 23263,
  "ianismo": 7094,
  "iano": 1478,
  "ianos": 3666,
  "ians": 43301,
  "iant": 49950,
  "iante": 48584,
  "ianÃ§a": 4073,
  "ianÃ§as": 20577,
  "iao": 42091,
  "iar": 2090,
  "iara": 33412,
  "iaram": 24885,
  "iares": 21605,
  "ias": 686,
  "iase": 47436,
  "iasse": 34033,
  "iat": 23753,
  "iato": 16982,
  "iava": 43832,
  "iaÃ§Ã£o": 3357,
  "iaÃ§Ãµes": 23605,
  "iaÃŃ": 23532,
  "ib": 594,
  "iba": 10257,
  "ibal": 13184,
  "ibald": 44386,
  "ibaldi": 28002,
  "iban": 34536,
  "ibana": 39593,
  "ibanc": 21631,
  "ibano": 28878,
  "ibar": 28384,
  "ibe": 7040,
  "ibel": 38630,
  "iber": 8689,
  "ibera": 39592,
  "iberal": 40420,
  "ibi": 14730,
  "ibida": 33131,
  "ibido": 38726,
  "ibil": 1875,
  "ibilidade": 2814,
  "ibir": 33765,
  "ibis": 46369,
  "ibiÃ§Ã£o": 39626,
  "ible": 21615,
  "ibo": 27746,
  "ibol": 10472,
  "ibor": 35175,
  "ibra": 35574,
  "ibre": 48823,
  "ibu": 24823,
  "ibus": 5634,
  "ibÃ£": 40191,
  "ic": 287,
  "ica": 350,
  "icada": 38030,
  "icado": 28174,
  "icago": 6387,
  "icais": 3181,
  "ical": 3160,
  "icamente": 1829,
  "icameral": 46175,
  "icana": 15797,
  "icando": 45743,
  "icano": 9067,
  "icanos": 24894,
  "icar": 18377,
  "icarpo": 49443,
  "icas": 706,
  "icasse": 15607,
  "icasso": 30263,
  "ication": 45484,
  "ications": 26421,
  "icaÃ§Ã£o": 978,
  "icaÃ§Ãµes": 3205,
  "ice": 1244,
  "icer": 22182,
  "ices": 7357,
  "icester": 32239,
  "iceu": 13276,
  "ich": 1446,
  "icha": 48355,
  "iche": 18924,
  "icheiro": 46439,
  "ichi": 16218,
  "icht": 43962,
  "ichy": 40649,
  "ici": 1183,
  "icia": 1240,
  "iciada": 31893,
  "iciado": 18646,
  "iciados": 37534,
  "iciais": 2757,
  "icial": 956,
  "icialmente": 5664,
  "iciano": 13722,
  "icianos": 37838,
  "iciar": 37141,
  "icida": 38455,
  "icidade": 4712,
  "icide": 41170,
  "icil": 17663,
  "icina": 6254,
  "icio": 9606,
  "icion": 2507,
  "icionado": 35234,
  "icionais": 40106,
  "icional": 14187,
  "icionista": 20988,
  "icionistas": 32188,
  "icionÃ¡rio": 16253,
  "iciou": 11221,
  "icious": 49335,
  "icismo": 17717,
  "icista": 28587,
  "icius": 28385,
  "iciÃºma": 31040,
  "ick": 1928,
  "icke": 47666,
  "icket": 41506,
  "icks": 14102,
  "icl": 11181,
  "icle": 29100,
  "icles": 23533,
  "iclo": 10288,
  "iclop": 18268,
  "iclopÃ©dia": 22086,
  "ico": 442,
  "icode": 48591,
  "icom": 41354,
  "icon": 10268,
  "icos": 684,
  "icose": 19749,
  "icou": 24528,
  "ics": 5517,
  "icul": 3034,
  "icular": 13803,
  "iculares": 35107,
  "icultura": 19626,
  "icum": 19941,
  "icus": 23459,
  "icy": 31739,
  "icz": 25135,
  "icÃ¡": 46797,
  "icÃ¡cia": 14692,
  "icÃ³": 36511,
  "icÃ³p": 12640,
  "icÃŃdio": 36858,
  "icÃŃnios": 42947,
  "id": 292,
  "ida": 451,
  "idaceae": 48299,
  "idad": 3242,
  "idada": 16655,
  "idadas": 41123,
  "idade": 416,
  "idades": 714,
  "idado": 10347,
  "idados": 22604,
  "idae": 9783,
  "idais": 38306,
  "idal": 8926,
  "idalgo": 18296,
  "idam": 30641,
  "idamente": 12712,
  "idan": 27066,
  "idar": 5913,
  "idaram": 35531,
  "idarismo": 34658,
  "idas": 777,
  "idase": 42092,
  "iday": 25931,
  "idaÃ§Ã£o": 8931,
  "idd": 32240,
  "ide": 982,
  "idea": 31402,
  "ideae": 33346,
  "idec": 47950,
  "idel": 9048,
  "idelidade": 14885,
  "idem": 39278,
  "iden": 14211,
  "idencial": 20540,
  "ident": 1395,
  "identais": 8227,
  "idental": 3383,
  "idente": 1013,
  "identemente": 34372,
  "identes": 6932,
  "ideo": 10147,
  "idepress": 41010,
  "ider": 2796,
  "idera": 902,
  "ideram": 9688,
  "ideranÃ§a": 29090,
  "idere": 20765,
  "iderme": 46062,
  "iderou": 8506,
  "iders": 22016,
  "ides": 3963,
  "idez": 9468,
  "idge": 8607,
  "idi": 7863,
  "idia": 24245,
  "idiana": 25888,
  "idiano": 27464,
  "idimens": 15994,
  "idimensionais": 33859,
  "idimensional": 20478,
  "idina": 39586,
  "idio": 30901,
  "idiocese": 13038,
  "idire": 45614,
  "idis": 31297,
  "idiu": 21176,
  "idium": 38031,
  "ido": 407,
  "idon": 37009,
  "idor": 5547,
  "idora": 18925,
  "idoras": 47602,
  "idores": 6807,
  "idoro": 30595,
  "idos": 602,
  "idou": 12587,
  "idra": 15682,
  "idro": 3672,
  "ids": 18852,
  "idth": 33947,
  "idu": 15535,
  "idual": 47600,
  "idura": 46598,
  "idy": 35244,
  "idÃ¡": 48004,
  "idÃ¡vel": 31240,
  "idÃ£o": 4237,
  "idÃªncia": 2525,
  "idÃ³": 41391,
  "ie": 897,
  "ied": 17906,
  "iedade": 10322,
  "ief": 18468,
  "ieg": 42632,
  "iegel": 47896,
  "iel": 2031,
  "ield": 4803,
  "ielorr": 19446,
  "ien": 9180,
  "iense": 15477,
  "ienses": 30622,
  "ient": 1322,
  "ienta": 16071,
  "iental": 15044,
  "iente": 2239,
  "ientes": 3812,
  "iento": 26769,
  "ier": 2355,
  "iera": 50184,
  "iere": 41908,
  "ieri": 15495,
  "ierre": 20278,
  "ierry": 41966,
  "iers": 20984,
  "ies": 4433,
  "iet": 26331,
  "ieta": 10634,
  "iete": 43415,
  "ieto": 44797,
  "ieu": 16684,
  "iev": 15750,
  "ieval": 39899,
  "ieve": 20037,
  "if": 476,
  "ifa": 9171,
  "ifas": 36771,
  "ifax": 43862,
  "ife": 5387,
  "ifer": 14572,
  "ifere": 8131,
  "ifesto": 26175,
  "iff": 10917,
  "iffe": 26295,
  "ific": 1008,
  "ifica": 1366,
  "ificada": 5227,
  "ificadas": 8862,
  "ificado": 2618,
  "ificador": 18171,
  "ificadores": 21920,
  "ificados": 5981,
  "ificam": 12230,
  "ificamente": 34249,
  "ificando": 8995,
  "ificar": 3991,
  "ificaram": 15290,
  "ificaÃ§Ã£o": 1933,
  "ificaÃ§Ãµes": 6298,
  "ificou": 6026,
  "ifinal": 44695,
  "ifique": 35174,
  "ifo": 33108,
  "ifolia": 45095,
  "iforme": 31699,
  "iformes": 25477,
  "ift": 12084,
  "ifÃ¡cio": 20284,
  "ifÃŃcio": 12912,
  "ifÃŃcios": 32335,
  "ig": 410,
  "iga": 1052,
  "igail": 40228,
  "igal": 41993,
  "igam": 45809,
  "igan": 12544,
  "igante": 25126,
  "igantes": 38214,
  "igar": 35029,
  "igarh": 48873,
  "igas": 3817,
  "igaÃ§Ã£o": 35055,
  "ige": 21162,
  "igen": 26201,
  "iger": 19430,
  "igg": 18658,
  "iggins": 35619,
  "iggler": 32160,
  "igh": 4134,
  "ight": 3072,
  "ighter": 48994,
  "ights": 14066,
  "ighty": 40318,
  "igi": 10112,
  "igiene": 22720,
  "igma": 34003,
  "ign": 1083,
  "igna": 5030,
  "ignado": 47071,
  "ignaÃ§Ã£o": 21444,
  "igne": 20042,
  "ignifica": 24106,
  "igno": 36929,
  "ignon": 35577,
  "igny": 29168,
  "igo": 1151,
  "igode": 45755,
  "igos": 1739,
  "igra": 3783,
  "igrafia": 31851,
  "igrantes": 5428,
  "igraÃ§Ã£o": 6765,
  "igre": 37955,
  "igs": 26590,
  "igu": 1288,
  "igual": 40648,
  "iguar": 38043,
  "igue": 26470,
  "iguel": 4101,
  "iguidade": 10012,
  "iguidades": 26841,
  "igur": 44645,
  "igÃ£o": 48158,
  "ii": 8198,
  "ij": 7158,
  "ija": 40103,
  "ijin": 48705,
  "ijo": 13281,
  "ijos": 34137,
  "ik": 1378,
  "ika": 8067,
  "ikawa": 35846,
  "ike": 4798,
  "iki": 4628,
  "ikk": 44420,
  "iko": 10478,
  "ikon": 39505,
  "ikov": 23536,
  "iku": 32619,
  "il": 334,
  "ila": 1367,
  "ilac": 49337,
  "ilado": 34453,
  "ilamento": 48102,
  "iland": 23935,
  "ilante": 30753,
  "ilantes": 43961,
  "ilar": 3550,
  "ilares": 6621,
  "ilary": 49424,
  "ilas": 14595,
  "ilate": 48463,
  "ilateral": 25031,
  "ilato": 47440,
  "ilaÃ§Ã£o": 13542,
  "ild": 6989,
  "ilda": 20897,
  "ilde": 30471,
  "ilding": 28954,
  "ildo": 28999,
  "ile": 768,
  "ileia": 25728,
  "ilepsia": 42391,
  "iler": 12697,
  "ilera": 20125,
  "ilers": 28557,
  "iles": 13380,
  "iley": 12632,
  "ilh": 31617,
  "ilha": 5796,
  "ilhada": 41729,
  "ilhas": 11092,
  "ilheira": 32841,
  "ilho": 17530,
  "ilhos": 14876,
  "ili": 7404,
  "ilia": 4190,
  "iliadas": 21298,
  "iliadora": 48706,
  "iliano": 14914,
  "iliar": 4452,
  "iliares": 6371,
  "ilidade": 16620,
  "ilight": 33059,
  "ilio": 43952,
  "ilis": 34476,
  "ill": 1301,
  "illa": 4180,
  "illac": 46007,
  "illar": 48308,
  "illard": 46888,
  "illas": 49100,
  "illaume": 35610,
  "ille": 7165,
  "iller": 12755,
  "illermo": 30678,
  "illes": 28962,
  "illi": 32171,
  "illo": 14586,
  "illon": 22310,
  "ills": 35959,
  "illy": 13565,
  "ilo": 1880,
  "ilog": 40683,
  "ilon": 39282,
  "ilor": 29601,
  "ilos": 26496,
  "iloto": 21182,
  "ils": 17229,
  "ilson": 30669,
  "ilton": 7824,
  "ilv": 11859,
  "ilvÃ¢nia": 12520,
  "ily": 6403,
  "ilyn": 24356,
  "ilÃ¢ncia": 14232,
  "ilÃ¢ndia": 12551,
  "ilÃ£o": 14678,
  "ilÃµes": 39408,
  "im": 437,
  "ima": 825,
  "imagem": 35863,
  "imais": 39157,
  "imal": 18533,
  "imamente": 14248,
  "iman": 35721,
  "imar": 7456,
  "imarÃ£es": 9806,
  "imas": 4595,
  "imato": 41500,
  "imaÃ§Ã£o": 34350,
  "imb": 5407,
  "imble": 28055,
  "imbledon": 29637,
  "imbo": 23647,
  "imbra": 6783,
  "ime": 1695,
  "imedes": 40159,
  "imeira": 25228,
  "imen": 36637,
  "imens": 12218,
  "imento": 1715,
  "imentos": 3944,
  "imes": 3801,
  "imetria": 39059,
  "imi": 18879,
  "imir": 11845,
  "imiro": 28809,
  "immer": 27140,
  "imo": 1318,
  "imon": 21362,
  "imos": 3595,
  "imoto": 34094,
  "imov": 35540,
  "imp": 8381,
  "impe": 30302,
  "impeachment": 31996,
  "imper": 39202,
  "imperador": 30381,
  "imperial": 48953,
  "impress": 49184,
  "impÃŃ": 11553,
  "in": 276,
  "ina": 508,
  "inada": 5239,
  "inadas": 9599,
  "inado": 1949,
  "inador": 14938,
  "inadores": 21739,
  "inados": 5757,
  "inae": 25255,
  "inagem": 38725,
  "inagre": 44170,
  "inais": 2093,
  "inal": 636,
  "inaldo": 15998,
  "inalmente": 5598,
  "inam": 14621,
  "inamb": 38412,
  "iname": 33788,
  "inamente": 13808,
  "inamento": 5654,
  "inando": 7798,
  "inante": 29226,
  "inantes": 39662,
  "inar": 2717,
  "inaram": 9805,
  "inares": 18919,
  "inaria": 29050,
  "inariamente": 29088,
  "inary": 45243,
  "inas": 1090,
  "inasse": 46814,
  "inastia": 5814,
  "inastias": 30248,
  "inata": 49188,
  "ination": 29534,
  "inato": 6057,
  "inatÃ³ria": 40775,
  "inava": 36553,
  "inawa": 30069,
  "inaÃ§Ã£o": 3032,
  "inaÃ§Ãµes": 17523,
  "inc": 2700,
  "inclu": 8759,
  "include": 26395,
  "incluindo": 11112,
  "inclusive": 34655,
  "inco": 16334,
  "incy": 39965,
  "ind": 2046,
  "inda": 760,
  "indade": 14966,
  "indades": 20049,
  "inde": 15286,
  "independente": 47100,
  "indi": 44525,
  "indic": 12708,
  "indica": 7983,
  "indler": 49556,
  "indo": 673,
  "indow": 49481,
  "indows": 6798,
  "indu": 15492,
  "indus": 22369,
  "industrial": 36720,
  "indy": 39507,
  "indÃ©": 47140,
  "indÃºstria": 45704,
  "ine": 890,
  "inee": 37895,
  "inel": 28975,
  "inela": 38755,
  "inem": 28847,
  "inema": 2232,
  "inen": 34054,
  "inense": 11362,
  "inenses": 49873,
  "inentais": 39942,
  "inental": 10598,
  "inente": 18021,
  "iner": 11043,
  "ines": 9341,
  "iness": 15014,
  "inete": 32640,
  "inetes": 45877,
  "ineu": 33961,
  "inf": 13825,
  "inflama": 38013,
  "ing": 569,
  "inga": 6017,
  "ingal": 47062,
  "ingan": 49674,
  "ingapura": 15733,
  "ingas": 49047,
  "inge": 22599,
  "ingen": 15070,
  "inger": 7478,
  "ingham": 12291,
  "ingle": 2129,
  "ingles": 4909,
  "inglÃªs": 46113,
  "ingo": 22355,
  "ingos": 7603,
  "ingrado": 25495,
  "ings": 4422,
  "ington": 3754,
  "ingu": 3315,
  "ingue": 38413,
  "inguÃ©m": 6954,
  "ingway": 50113,
  "ingÃ¡": 25566,
  "ingÃ£o": 43260,
  "ingÃ¼": 33631,
  "inh": 1704,
  "inha": 639,
  "inhada": 32173,
  "inhadas": 50217,
  "inhado": 47497,
  "inhais": 32846,
  "inhal": 21232,
  "inham": 2200,
  "inhar": 24537,
  "inhas": 4394,
  "inheira": 33617,
  "inheiro": 2946,
  "inheiros": 10179,
  "inho": 1097,
  "inhos": 2640,
  "inhÃ£o": 25448,
  "inhÃµes": 17558,
  "ini": 3064,
  "inia": 24753,
  "iniac": 42230,
  "inidade": 13341,
  "inidades": 46170,
  "inim": 31809,
  "inismo": 33411,
  "inista": 18472,
  "inistas": 44294,
  "inizaÃ§Ã£o": 45369,
  "ink": 7626,
  "inn": 9841,
  "inna": 23132,
  "innati": 27225,
  "inne": 48513,
  "inness": 29631,
  "ino": 641,
  "inoco": 37020,
  "inom": 20338,
  "inome": 26260,
  "inomial": 23337,
  "inos": 1757,
  "inosa": 33123,
  "inossa": 15166,
  "inou": 2908,
  "inoza": 43731,
  "ins": 1500,
  "insk": 32357,
  "inski": 22533,
  "insky": 23587,
  "inson": 47664,
  "inst": 28596,
  "instein": 15419,
  "instream": 22855,
  "instru": 27455,
  "instrumentista": 48721,
  "insular": 28047,
  "int": 1273,
  "inta": 4373,
  "inte": 1100,
  "integra": 12118,
  "integrante": 40207,
  "intendente": 25405,
  "intendo": 8939,
  "intendÃªncia": 31892,
  "inter": 6672,
  "interpre": 20295,
  "interpretada": 44212,
  "interpretado": 32082,
  "interrup": 24087,
  "intes": 2464,
  "inteto": 31199,
  "inthia": 9095,
  "inthians": 9166,
  "intit": 23079,
  "intitulado": 27518,
  "into": 2834,
  "inton": 13546,
  "intra": 15177,
  "inu": 940,
  "inus": 24139,
  "inux": 12718,
  "inville": 20308,
  "iny": 19118,
  "inz": 15308,
  "inÃ¡": 36109,
  "inÃ¡ria": 6507,
  "inÃ¡rias": 15935,
  "inÃ¡rio": 7982,
  "inÃ¡rios": 13591,
  "inÃ©": 9383,
  "inÃ©s": 47114,
  "inÃ³polis": 37374,
  "io": 365,
  "ioc": 3919,
  "ioca": 5408,
  "iocas": 25157,
  "ioces": 15319,
  "iocesano": 20522,
  "iocese": 5228,
  "ioceses": 24013,
  "iografia": 16053,
  "iol": 28554,
  "iologia": 29205,
  "iom": 49878,
  "iomar": 47733,
  "ion": 610,
  "iona": 22153,
  "ionada": 37581,
  "ionado": 21776,
  "ionados": 45815,
  "ionais": 2080,
  "ional": 1381,
  "ionale": 28595,
  "ionalmente": 4827,
  "ionamento": 48454,
  "ionando": 49890,
  "ionar": 33265,
  "ione": 11958,
  "ioneer": 46456,
  "ioni": 33632,
  "ionismo": 22368,
  "ionista": 16790,
  "ionistas": 24222,
  "ionou": 25415,
  "ions": 12079,
  "ionÃ¡ria": 16556,
  "ionÃ¡rias": 30644,
  "ionÃ¡rio": 14319,
  "ionÃ¡rios": 18586,
  "ior": 535,
  "iores": 1917,
  "iori": 48818,
  "ios": 632,
  "iosa": 6355,
  "iosamente": 22821,
  "iosas": 13436,
  "iose": 27656,
  "iosidade": 48600,
  "ioso": 5405,
  "iosos": 10963,
  "iot": 25181,
  "iote": 3536,
  "iotec": 31797,
  "iotecnologia": 35399,
  "iotera": 19758,
  "ioterapia": 23824,
  "ioto": 34213,
  "iou": 4462,
  "ious": 44400,
  "ioux": 45303,
  "ip": 681,
  "ipa": 1130,
  "ipais": 7913,
  "ipal": 2497,
  "ipas": 32353,
  "ipaÃ§Ã£o": 34733,
  "ipe": 1135,
  "ipedia": 39379,
  "ipeg": 40786,
  "ipes": 11468,
  "ipira": 31089,
  "iplo": 19107,
  "ipo": 12529,
  "ipou": 9943,
  "ipper": 40975,
  "ips": 9352,
  "ipse": 12933,
  "ipses": 44796,
  "ipso": 46484,
  "ipto": 24758,
  "ipu": 30410,
  "ipÃ©": 10234,
  "ipÃ©dia": 24808,
  "ipÃ©lago": 11597,
  "iqu": 4076,
  "ique": 3544,
  "iquei": 30912,
  "iqueira": 20181,
  "iquem": 25913,
  "iques": 31366,
  "iquia": 15360,
  "iquiatria": 41032,
  "iquistÃ£o": 47392,
  "iquiÃ¡": 18959,
  "ir": 429,
  "ira": 484,
  "irac": 26437,
  "iracusa": 43766,
  "irado": 41047,
  "irais": 34457,
  "iral": 16900,
  "iram": 1513,
  "iran": 33985,
  "iras": 1487,
  "irassol": 40315,
  "ird": 17612,
  "ire": 1336,
  "irem": 8428,
  "irense": 37962,
  "ires": 6085,
  "irez": 43369,
  "iri": 2073,
  "iria": 7708,
  "iricamente": 24995,
  "irim": 11992,
  "irinha": 49885,
  "irinto": 29200,
  "iris": 46802,
  "irismo": 34944,
  "irit": 18832,
  "irita": 49346,
  "iritismo": 30993,
  "iritual": 26845,
  "irl": 20924,
  "irls": 39452,
  "irmÃ£": 16247,
  "irmÃ£o": 17581,
  "irmÃ£os": 38569,
  "irmÃ£s": 49517,
  "iro": 518,
  "iron": 29283,
  "iros": 1158,
  "irou": 5642,
  "irre": 28119,
  "irro": 11477,
  "irros": 41678,
  "irs": 21787,
  "iru": 22920,
  "irvana": 28066,
  "iry": 43622,
  "irÃ¡": 19812,
  "irÃ£o": 13118,
  "irÃµes": 47801,
  "is": 274,
  "isa": 1685,
  "isand": 45322,
  "isas": 3755,
  "isav": 27883,
  "isc": 4573,
  "isca": 42896,
  "iscadas": 49508,
  "isch": 29378,
  "ische": 30741,
  "ischer": 42240,
  "isco": 1752,
  "iscons": 22379,
  "isconsin": 25165,
  "iscopal": 11546,
  "iscos": 40338,
  "ise": 1735,
  "isebol": 18830,
  "isel": 31031,
  "iser": 29066,
  "ises": 7457,
  "iseu": 12753,
  "isf": 4884,
  "isfa": 12025,
  "isfÃ©rio": 15576,
  "ish": 3641,
  "isha": 26332,
  "isher": 44237,
  "ishi": 19697,
  "ishing": 23205,
  "isi": 11670,
  "ising": 26601,
  "ision": 4953,
  "isiÃ³n": 44088,
  "isla": 3003,
  "islau": 22460,
  "islav": 47202,
  "isle": 46292,
  "ism": 18493,
  "isma": 13782,
  "ismo": 835,
  "ismos": 4596,
  "ismÃ¡tica": 49594,
  "iso": 5680,
  "isoft": 36439,
  "ison": 7087,
  "isp": 5703,
  "ispado": 20367,
  "ispens": 21627,
  "ispo": 2942,
  "ispos": 41865,
  "isprudÃªncia": 31047,
  "iss": 739,
  "issa": 6549,
  "issas": 17011,
  "issau": 23785,
  "isse": 4905,
  "issem": 9573,
  "isses": 26887,
  "issex": 22292,
  "ission": 6459,
  "issip": 19256,
  "isso": 2356,
  "isson": 23522,
  "issor": 16209,
  "issora": 23892,
  "issoras": 31331,
  "issores": 23723,
  "issos": 19131,
  "issÃ¡rio": 14783,
  "issÃ¡rios": 21734,
  "issÃ£o": 1302,
  "issÃµes": 3628,
  "ist": 415,
  "ista": 504,
  "istan": 47739,
  "istar": 49187,
  "istas": 794,
  "iste": 668,
  "istem": 3930,
  "istema": 5643,
  "istemas": 11658,
  "isten": 30247,
  "istente": 5403,
  "istentes": 10934,
  "ister": 5633,
  "istes": 36768,
  "isti": 10968,
  "istia": 4826,
  "istiam": 22133,
  "istic": 11663,
  "isticamente": 19065,
  "isticismo": 32157,
  "istido": 34644,
  "istindo": 13865,
  "istir": 4645,
  "istiram": 12120,
  "istiu": 5542,
  "isto": 3484,
  "istoceno": 40750,
  "istoire": 45447,
  "iston": 40920,
  "istor": 34086,
  "istores": 40185,
  "istos": 7197,
  "istou": 15606,
  "istra": 34480,
  "istro": 13616,
  "ists": 21186,
  "istÃ£o": 5082,
  "istÃ©rio": 10484,
  "istÃ©rios": 23033,
  "istÃªncia": 1909,
  "istÃªncias": 27625,
  "istÃŃcio": 28624,
  "isÃ¡rio": 36311,
  "isÃ£o": 871,
  "isÃ©s": 16529,
  "isÃ³": 1818,
  "isÃ³dio": 21109,
  "isÃ³dios": 46194,
  "isÃµes": 4085,
  "it": 406,
  "ita": 465,
  "itada": 3328,
  "itadamente": 41487,
  "itadas": 7905,
  "itado": 2708,
  "itador": 30358,
  "itadores": 43258,
  "itados": 5794,
  "itag": 43003,
  "itage": 30476,
  "itais": 4620,
  "ital": 1105,
  "itam": 7701,
  "itamente": 8513,
  "itan": 9481,
  "itana": 30260,
  "itando": 4828,
  "itania": 15755,
  "itanias": 35283,
  "itanic": 16804,
  "itano": 24448,
  "itanos": 38722,
  "itante": 21981,
  "itantemente": 43895,
  "itantes": 25519,
  "itar": 1037,
  "itaram": 17474,
  "itares": 19168,
  "itariamente": 13499,
  "itarismo": 24946,
  "itarista": 50037,
  "itas": 1128,
  "itasse": 36459,
  "itassem": 47362,
  "itation": 36890,
  "itava": 12221,
  "itavam": 39050,
  "itaÃ§Ã£o": 3580,
  "itaÃ§Ãµes": 8157,
  "itch": 6108,
  "itchfork": 40613,
  "itchie": 40890,
  "ite": 718,
  "iteatro": 33877,
  "itec": 34092,
  "ited": 7194,
  "item": 15260,
  "itenci": 21827,
  "itenciÃ¡ria": 31255,
  "itenciÃ¡rio": 44957,
  "itenta": 17230,
  "iter": 2636,
  "iterr": 22167,
  "iterrÃ¢neo": 11079,
  "iterÃ³i": 13918,
  "ites": 3019,
  "ith": 2858,
  "iti": 5700,
  "itia": 34887,
  "itiba": 26958,
  "itido": 7416,
  "ities": 35770,
  "itina": 47886,
  "iting": 40274,
  "ition": 28026,
  "itir": 8018,
  "itiram": 32519,
  "itis": 26009,
  "itismo": 18562,
  "itista": 44351,
  "itiu": 8364,
  "itiva": 16761,
  "itivas": 37855,
  "itivo": 16434,
  "itivos": 23927,
  "itmo": 33060,
  "ito": 497,
  "itola": 25240,
  "itologia": 41090,
  "iton": 36422,
  "itor": 2157,
  "itora": 3545,
  "itoral": 5236,
  "itoras": 20412,
  "itores": 4482,
  "itoria": 28912,
  "itoriais": 34058,
  "itos": 837,
  "itou": 3572,
  "itra": 25804,
  "itre": 40594,
  "itri": 11515,
  "itro": 7349,
  "itros": 27689,
  "its": 4576,
  "itsch": 37845,
  "itsu": 18184,
  "itt": 13371,
  "itta": 20574,
  "itte": 34959,
  "itter": 8883,
  "ittle": 9476,
  "itu": 6628,
  "ituba": 45346,
  "itude": 12351,
  "itudes": 42166,
  "itura": 29528,
  "ity": 2591,
  "itz": 5586,
  "itzer": 29345,
  "itÃ¡": 16023,
  "itÃ¡cio": 47057,
  "itÃ¡ria": 5240,
  "itÃ¡rias": 10603,
  "itÃ¡rio": 4176,
  "itÃ¡rios": 6975,
  "itÃ¡veis": 46107,
  "itÃ¡vel": 19388,
  "itÃ¢ncia": 28653,
  "itÃ¢nia": 19771,
  "itÃ£o": 3660,
  "itÃ©": 13392,
  "itÃ©rio": 7042,
  "itÃ©rios": 31494,
  "itÃª": 6097,
  "itÃªncia": 35728,
  "itÃªs": 25761,
  "itÃ³ria": 22496,
  "itÃ³rio": 20276,
  "itÃ³rios": 41129,
  "iu": 580,
  "iudad": 28420,
  "ium": 6145,
  "ius": 6903,
  "iv": 399,
  "iva": 1431,
  "ivado": 21951,
  "ival": 3931,
  "ivaldo": 29916,
  "ivalente": 27232,
  "ivamente": 3890,
  "ivan": 40109,
  "ivar": 33872,
  "ivas": 4653,
  "ive": 1191,
  "ivel": 4962,
  "ivelmente": 5486,
  "iven": 35298,
  "ivendo": 40000,
  "iver": 1955,
  "iveram": 2687,
  "iverde": 41100,
  "iverpool": 13090,
  "ivers": 716,
  "iversais": 28082,
  "iversary": 46048,
  "iverse": 30229,
  "iversidade": 11268,
  "iverso": 4714,
  "iversÃ¡rio": 6447,
  "ives": 27253,
  "iveu": 10198,
  "ivid": 24260,
  "ividade": 11966,
  "ivil": 2346,
  "ivis": 5974,
  "ivo": 1519,
  "ivos": 3130,
  "ivÃ´": 37314,
  "ivÃŃduos": 46607,
  "iwan": 42133,
  "ix": 561,
  "ixa": 1522,
  "ixaba": 27765,
  "ixada": 15784,
  "ixamento": 15035,
  "ixas": 2788,
  "ixe": 42256,
  "ixo": 1485,
  "ixon": 13818,
  "ixos": 4289,
  "ixote": 32148,
  "ixto": 44911,
  "ixÃ¡": 29965,
  "ixÃ¡s": 40111,
  "ixÃ£o": 6819,
  "ixÃµes": 24757,
  "iy": 33081,
  "iya": 23982,
  "iz": 405,
  "iza": 2677,
  "izada": 2598,
  "izadas": 5142,
  "izade": 7362,
  "izades": 32449,
  "izado": 2340,
  "izador": 15903,
  "izadora": 27552,
  "izadores": 14379,
  "izados": 3946,
  "izam": 9826,
  "izamento": 38062,
  "izando": 4890,
  "izant": 4556,
  "izante": 22649,
  "izantes": 22176,
  "izar": 2911,
  "izaram": 11636,
  "izarem": 49559,
  "izaria": 42343,
  "izarro": 25383,
  "izasse": 49882,
  "ization": 26514,
  "izava": 14877,
  "izavam": 29471,
  "izaÃ§Ã£o": 1020,
  "izaÃ§Ãµes": 9082,
  "ize": 15567,
  "izen": 43064,
  "izer": 34214,
  "izeram": 43565,
  "izes": 36316,
  "izi": 44906,
  "izia": 49805,
  "izinho": 49806,
  "izo": 14019,
  "izon": 32954,
  "izonte": 6392,
  "izou": 3858,
  "izu": 38961,
  "izz": 21115,
  "izza": 33652,
  "izzard": 48864,
  "izÃ¡": 31843,
  "iÃ¡": 9409,
  "iÃ¡ria": 18687,
  "iÃ¡rias": 43155,
  "iÃ¡rio": 6747,
  "iÃ¡rios": 16412,
  "iÃ£": 42336,
  "iÃ£o": 722,
  "iÃ§a": 37692,
  "iÃ§o": 33254,
  "iÃ§Ã£o": 548,
  "iÃ§Ãµes": 939,
  "iÃ¨re": 41389,
  "iÃ©": 35289,
  "iÃªncia": 12063,
  "iÃ³n": 22935,
  "iÃ³polis": 43556,
  "iÃµes": 1786,
  "iÄĩ": 27758,
  "j": 74,
  "ja": 650,
  "jack": 46240,
  "jada": 10449,
  "jadas": 17234,
  "jado": 8176,
  "jador": 28907,
  "jados": 15632,
  "jah": 26864,
  "jal": 19811,
  "jam": 2930,
  "jamento": 6645,
  "jan": 17187,
  "jana": 29901,
  "jando": 16773,
  "jano": 18035,
  "jante": 33392,
  "jantes": 47487,
  "jar": 7295,
  "jara": 18693,
  "jaram": 32331,
  "jardim": 39446,
  "jas": 2549,
  "java": 26036,
  "jaz": 29830,
  "jazz": 37861,
  "jaÃº": 49050,
  "jaÃŃ": 29885,
  "je": 667,
  "jean": 33843,
  "jec": 3166,
  "ject": 16770,
  "jecto": 30210,
  "jei": 29851,
  "jeira": 47236,
  "jeito": 48292,
  "jen": 46033,
  "jer": 25373,
  "jes": 11040,
  "jet": 36891,
  "jeto": 7714,
  "jetos": 20162,
  "jevo": 45994,
  "ji": 5432,
  "jiang": 38410,
  "jillo": 43944,
  "jima": 28743,
  "jin": 16922,
  "jing": 35401,
  "jinha": 43055,
  "jins": 48582,
  "jitsu": 43452,
  "jm": 47112,
  "jo": 1409,
  "jog": 11485,
  "jogador": 16027,
  "jogo": 27497,
  "jogos": 34442,
  "jol": 45924,
  "jon": 37825,
  "jor": 5620,
  "jord": 28726,
  "jordÃ¢nia": 33835,
  "jornais": 34195,
  "jornal": 15639,
  "jos": 3192,
  "josa": 28311,
  "joso": 25751,
  "jou": 9491,
  "jov": 45612,
  "joy": 34892,
  "joz": 26572,
  "jpg": 38453,
  "ju": 865,
  "juda": 18062,
  "jum": 23604,
  "jun": 32547,
  "juntamente": 37960,
  "junto": 9223,
  "juntos": 28440,
  "junÃ§Ã£o": 45083,
  "jur": 29279,
  "jus": 6587,
  "jutsu": 34997,
  "juvenil": 24666,
  "juÃŃ": 42150,
  "jÃ¡": 10167,
  "jÃ¡s": 32332,
  "jÃ£": 36344,
  "jÃ£o": 12867,
  "jÃ©": 19260,
  "jÃ³": 24159,
  "jÃ³s": 45273,
  "jÃº": 25669,
  "jÅį": 34264,
  "k": 75,
  "ka": 1964,
  "kai": 16092,
  "kal": 23916,
  "kam": 48003,
  "kami": 45214,
  "kamp": 49946,
  "kan": 10987,
  "kana": 44102,
  "kansas": 27352,
  "kar": 12577,
  "kara": 27959,
  "kas": 21091,
  "kat": 22545,
  "kata": 32151,
  "katche": 45014,
  "katchewan": 45272,
  "kate": 25521,
  "kawa": 25419,
  "ke": 1618,
  "ked": 49383,
  "kee": 19085,
  "kees": 31675,
  "kei": 48148,
  "kel": 17547,
  "ken": 8733,
  "kend": 45172,
  "kens": 46994,
  "ker": 3186,
  "kers": 15289,
  "kes": 7306,
  "kespe": 14972,
  "kespeare": 15588,
  "ket": 5587,
  "keting": 9282,
  "kett": 39299,
  "key": 8803,
  "kg": 11659,
  "kh": 7173,
  "kha": 24870,
  "khar": 45213,
  "kho": 23843,
  "ki": 2249,
  "kia": 22140,
  "kian": 21872,
  "kie": 26836,
  "kien": 25635,
  "kies": 34190,
  "kiga": 45212,
  "kim": 33465,
  "kin": 5885,
  "kina": 31569,
  "kind": 36919,
  "king": 8592,
  "kins": 8162,
  "kinson": 21715,
  "kir": 26616,
  "kis": 22644,
  "kit": 44735,
  "kk": 27177,
  "kka": 26400,
  "kken": 40681,
  "kker": 36623,
  "kki": 47476,
  "kle": 34810,
  "kley": 42090,
  "km": 2106,
  "knot": 49589,
  "ko": 2993,
  "kob": 38551,
  "koff": 42263,
  "kok": 36345,
  "kol": 39488,
  "kom": 35161,
  "kon": 19176,
  "konen": 43820,
  "kor": 33036,
  "kos": 28555,
  "kota": 23990,
  "koto": 45575,
  "kou": 45679,
  "kov": 8254,
  "kova": 38511,
  "kovic": 36572,
  "koviÄĩ": 39713,
  "kowski": 26515,
  "kra": 29377,
  "ks": 3517,
  "kt": 36480,
  "ktop": 35942,
  "ku": 4295,
  "kul": 46423,
  "kun": 42666,
  "kura": 17398,
  "kus": 23550,
  "kut": 42994,
  "ky": 3112,
  "kyo": 19404,
  "kyu": 38361,
  "kÃ¶": 46470,
  "kÅį": 41529,
  "l": 76,
  "la": 380,
  "lab": 40074,
  "lac": 36315,
  "lace": 15374,
  "lach": 38421,
  "lack": 10689,
  "lad": 5955,
  "lada": 23400,
  "ladesh": 25188,
  "ladimir": 45898,
  "lado": 8621,
  "lados": 15874,
  "lag": 23349,
  "laga": 34989,
  "lagem": 10233,
  "lagher": 48718,
  "lago": 10512,
  "lagos": 34851,
  "lah": 16324,
  "lahoma": 21786,
  "lai": 33954,
  "laia": 28117,
  "lain": 24019,
  "lair": 31768,
  "lake": 26034,
  "lam": 3296,
  "lama": 4948,
  "lamando": 28176,
  "lamar": 22162,
  "lamas": 47203,
  "lamaÃ§Ã£o": 8593,
  "lamento": 5016,
  "lamo": 28610,
  "lan": 3373,
  "lana": 48805,
  "land": 2008,
  "landa": 6079,
  "lander": 40304,
  "landesa": 10972,
  "landesas": 29195,
  "landeses": 13494,
  "landfall": 49345,
  "lando": 8536,
  "landro": 48687,
  "lands": 22942,
  "landÃªs": 8761,
  "lane": 36660,
  "lang": 45736,
  "lano": 42807,
  "lant": 24313,
  "lanta": 40271,
  "lanÃ§ado": 35162,
  "lanÃ§amento": 48583,
  "lap": 39115,
  "lar": 10678,
  "lara": 14700,
  "lare": 10586,
  "lares": 3821,
  "las": 1071,
  "lash": 8033,
  "lass": 31082,
  "lasse": 11635,
  "lat": 40628,
  "lata": 46736,
  "late": 32953,
  "lateral": 45867,
  "laterra": 2830,
  "lato": 29731,
  "lau": 11123,
  "laus": 44475,
  "lav": 20747,
  "lava": 21161,
  "lave": 16311,
  "laves": 42865,
  "lavo": 33084,
  "lavos": 46945,
  "law": 46367,
  "lax": 41733,
  "lay": 23379,
  "laÃ§Ã£o": 7560,
  "ld": 2924,
  "le": 320,
  "lea": 31668,
  "lec": 3366,
  "lecto": 30527,
  "lectual": 48036,
  "lecular": 38282,
  "led": 14689,
  "ledge": 42932,
  "ledo": 13052,
  "lee": 21349,
  "leen": 38101,
  "leep": 31125,
  "leg": 21049,
  "lego": 32333,
  "lei": 7245,
  "leibol": 10956,
  "leigh": 45219,
  "lein": 40340,
  "leira": 36272,
  "leiro": 6308,
  "leiros": 17193,
  "leja": 42625,
  "lem": 9967,
  "lemburgo": 36512,
  "leming": 26304,
  "len": 3292,
  "lena": 39774,
  "lence": 42948,
  "lene": 12394,
  "leng": 40268,
  "lenge": 25899,
  "lenger": 26778,
  "lens": 35504,
  "lense": 37546,
  "lenta": 47118,
  "lente": 36484,
  "lento": 47117,
  "leo": 4420,
  "leos": 23791,
  "ler": 2332,
  "lera": 23317,
  "lerc": 46756,
  "lero": 48879,
  "lerose": 37227,
  "lers": 35105,
  "les": 633,
  "lesi": 9039,
  "lesias": 29284,
  "less": 16285,
  "lessand": 16374,
  "leste": 40551,
  "let": 4355,
  "leta": 4457,
  "letariado": 32028,
  "letas": 5647,
  "letcher": 37474,
  "lete": 23261,
  "letim": 22386,
  "letismo": 13051,
  "leto": 8715,
  "letos": 10578,
  "lets": 40302,
  "lett": 25644,
  "lette": 27457,
  "letti": 40660,
  "lev": 31060,
  "levard": 26529,
  "lew": 37499,
  "lewine": 43823,
  "lex": 5204,
  "lexÃ£o": 48245,
  "ley": 2229,
  "lez": 15652,
  "leza": 7013,
  "leÃ£o": 30570,
  "lha": 26291,
  "lhe": 2845,
  "lhes": 9298,
  "lho": 25120,
  "li": 3310,
  "lia": 702,
  "liam": 3232,
  "lian": 16630,
  "liana": 23670,
  "liance": 27558,
  "liano": 19050,
  "lib": 21479,
  "liber": 34688,
  "lic": 2156,
  "lica": 1749,
  "licana": 21666,
  "licas": 22214,
  "licaÃ§Ã£o": 5521,
  "lice": 18376,
  "lices": 38145,
  "lich": 27706,
  "licidade": 47314,
  "licismo": 14061,
  "lico": 10594,
  "licos": 13679,
  "licÃ£o": 42732,
  "lideranÃ§a": 38891,
  "lie": 7073,
  "lies": 32189,
  "lif": 28586,
  "life": 35722,
  "lifos": 43244,
  "lig": 1255,
  "liga": 6578,
  "ligaÃ§Ã£o": 13509,
  "ligente": 47614,
  "light": 17040,
  "ligÃªncia": 15960,
  "lim": 4500,
  "lin": 3640,
  "lina": 21822,
  "linas": 36882,
  "line": 4791,
  "linear": 48044,
  "lines": 16645,
  "ling": 3511,
  "linger": 39564,
  "lings": 49130,
  "lington": 25554,
  "lingu": 38337,
  "linha": 30879,
  "link": 34432,
  "lino": 13455,
  "lins": 12105,
  "linson": 50147,
  "lio": 10806,
  "lios": 34000,
  "lip": 50185,
  "lis": 12275,
  "lish": 22365,
  "list": 24137,
  "lista": 27599,
  "lit": 37401,
  "lite": 17883,
  "literalmente": 33801,
  "lito": 39938,
  "litos": 35985,
  "litz": 33408,
  "liv": 11540,
  "live": 41262,
  "livre": 37512,
  "livro": 47927,
  "ll": 8879,
  "lla": 27463,
  "llas": 49716,
  "lle": 47237,
  "ller": 16492,
  "lli": 25654,
  "lmente": 2622,
  "lo": 448,
  "load": 9545,
  "loc": 29782,
  "local": 40505,
  "lock": 11320,
  "locu": 37091,
  "loe": 25289,
  "log": 11588,
  "logia": 5093,
  "logista": 31293,
  "logo": 6372,
  "logos": 12906,
  "lome": 6888,
  "lon": 13979,
  "long": 41041,
  "loo": 32425,
  "lope": 38205,
  "lor": 3673,
  "lora": 18614,
  "lores": 2371,
  "los": 1276,
  "losa": 49972,
  "lose": 29483,
  "loss": 24534,
  "losÃ£o": 22305,
  "lot": 25852,
  "lotte": 14191,
  "lou": 17520,
  "lov": 8208,
  "lova": 21961,
  "loven": 37577,
  "lovÃ¡quia": 13890,
  "low": 7216,
  "loween": 28045,
  "lows": 47365,
  "ls": 4711,
  "lster": 40478,
  "lti": 995,
  "ltima": 8751,
  "ltimate": 17891,
  "ltimo": 15181,
  "ltimos": 27903,
  "ltra": 4155,
  "lu": 525,
  "lub": 2450,
  "lube": 1428,
  "lubes": 3465,
  "lucci": 44408,
  "lue": 20770,
  "lues": 14533,
  "lugar": 36828,
  "lum": 25598,
  "lund": 34459,
  "lus": 1550,
  "lusa": 40606,
  "lusive": 22276,
  "lusÃ£o": 21190,
  "luta": 41789,
  "lux": 38802,
  "luz": 21092,
  "lva": 5162,
  "ly": 2021,
  "lyde": 38809,
  "lying": 28331,
  "lymouth": 43371,
  "lymp": 36433,
  "lyn": 11141,
  "lynn": 32545,
  "lys": 23952,
  "lysses": 34903,
  "lywood": 30028,
  "lÃ¡": 28891,
  "lÃ¡n": 36177,
  "lÃ¡via": 12360,
  "lÃ¢": 2455,
  "lÃ¢mpa": 36152,
  "lÃ¢nd": 17572,
  "lÃ¢ndia": 6376,
  "lÃ¢nt": 4899,
  "lÃ£": 48878,
  "lÃ£o": 37311,
  "lÃ©": 11058,
  "lÃ©ans": 32793,
  "lÃ©s": 47946,
  "lÃªs": 2499,
  "lÃ³": 46860,
  "lÃ³gica": 37520,
  "lÃºdio": 35917,
  "lÃŃder": 25919,
  "lÃŃngua": 31837,
  "m": 77,
  "ma": 278,
  "mac": 10462,
  "macht": 30944,
  "mack": 13056,
  "mackDown": 15263,
  "maco": 17498,
  "macos": 29221,
  "mad": 11981,
  "mada": 2645,
  "madas": 12133,
  "mado": 2712,
  "mados": 9528,
  "mael": 26113,
  "maf": 39315,
  "mafrod": 49935,
  "mag": 14072,
  "magem": 13550,
  "magn": 13802,
  "magnetismo": 42700,
  "mago": 36707,
  "mah": 42760,
  "mail": 12137,
  "mails": 33519,
  "main": 21025,
  "maine": 40300,
  "mainstream": 43198,
  "maio": 47874,
  "maior": 18821,
  "mais": 2409,
  "mak": 44902,
  "maker": 42761,
  "mal": 4386,
  "mala": 48514,
  "male": 39883,
  "malia": 35442,
  "malias": 38259,
  "mall": 21055,
  "mam": 29499,
  "mamente": 48212,
  "mamento": 33037,
  "man": 588,
  "mana": 1844,
  "manaque": 44017,
  "manas": 3142,
  "manca": 27189,
  "mand": 7110,
  "manda": 42713,
  "mandade": 16007,
  "mandades": 42600,
  "mander": 48806,
  "mando": 3868,
  "mandu": 34100,
  "mane": 30790,
  "manes": 47742,
  "manha": 2363,
  "mani": 19796,
  "mania": 21976,
  "mann": 4894,
  "mano": 5895,
  "manos": 3321,
  "mans": 22410,
  "mant": 13534,
  "mante": 10125,
  "mantes": 16810,
  "mantha": 34018,
  "manuel": 14304,
  "mar": 1058,
  "mara": 2324,
  "maram": 36857,
  "maras": 14669,
  "marca": 5660,
  "marcas": 36323,
  "marck": 23123,
  "mare": 27239,
  "mares": 24578,
  "mari": 32238,
  "maria": 16353,
  "marias": 34883,
  "marido": 33347,
  "marine": 40429,
  "mark": 25569,
  "marketing": 37291,
  "mart": 14157,
  "maru": 44295,
  "mary": 32643,
  "marÃ©": 49334,
  "mas": 614,
  "mash": 27509,
  "maso": 27844,
  "massa": 28164,
  "masse": 28727,
  "master": 19143,
  "mat": 22636,
  "mata": 14660,
  "matas": 30084,
  "mate": 28299,
  "math": 30340,
  "matic": 46427,
  "mato": 6233,
  "matologia": 49360,
  "matÃ³": 43559,
  "mava": 44686,
  "max": 21316,
  "may": 33946,
  "maz": 2562,
  "maÃ§Ã£o": 21918,
  "mb": 403,
  "mba": 3870,
  "mbal": 16859,
  "mbanda": 39472,
  "mbar": 16120,
  "mbas": 21407,
  "mbat": 24887,
  "mbe": 28527,
  "mber": 19402,
  "mberg": 14632,
  "mberga": 37329,
  "mbi": 32843,
  "mbia": 6674,
  "mbio": 11782,
  "mble": 34323,
  "mblÃ©": 25492,
  "mbo": 7140,
  "mbolo": 33368,
  "mbora": 2661,
  "mbos": 17486,
  "mbr": 42719,
  "mbra": 3157,
  "mbre": 20402,
  "mbres": 49469,
  "mbria": 29826,
  "mbro": 1059,
  "mbros": 1765,
  "mbu": 30244,
  "mburgo": 13043,
  "mbÃ©m": 524,
  "me": 284,
  "mea": 2915,
  "mebol": 49463,
  "mec": 25375,
  "med": 8846,
  "meda": 30667,
  "mede": 26544,
  "medes": 46361,
  "medi": 8881,
  "media": 11951,
  "medo": 41446,
  "mega": 24554,
  "mei": 30021,
  "meia": 14443,
  "meio": 38718,
  "meira": 8288,
  "meiras": 8692,
  "meiro": 10715,
  "meiros": 24398,
  "mel": 1368,
  "mela": 21866,
  "melas": 46101,
  "melh": 7930,
  "melha": 2316,
  "melhante": 32575,
  "melho": 4233,
  "melhor": 23672,
  "melhos": 39959,
  "mell": 44261,
  "melo": 13998,
  "melos": 22812,
  "melu": 30881,
  "mem": 5449,
  "memb": 10947,
  "member": 34833,
  "membra": 25389,
  "membro": 26233,
  "membros": 22042,
  "men": 2680,
  "mena": 12177,
  "menau": 26649,
  "menda": 12236,
  "mendo": 14114,
  "menes": 41508,
  "mengo": 8212,
  "menistÃ£o": 45887,
  "meno": 11506,
  "menor": 31516,
  "menores": 39772,
  "menos": 15528,
  "mens": 3906,
  "ment": 496,
  "menta": 2540,
  "mentada": 10278,
  "mentadas": 14851,
  "mentado": 7628,
  "mentados": 16059,
  "mentais": 4431,
  "mental": 2502,
  "mentalmente": 18570,
  "mentam": 18675,
  "mentando": 14373,
  "mentar": 2193,
  "mentaram": 26275,
  "mentares": 6688,
  "mentary": 45503,
  "mentas": 7880,
  "mentava": 34781,
  "mentaÃ§Ã£o": 2955,
  "mentaÃ§Ãµes": 17589,
  "mente": 364,
  "mentes": 10250,
  "mentista": 22482,
  "mento": 432,
  "mentos": 701,
  "mentou": 3567,
  "ments": 18857,
  "mentÃ¡ria": 30745,
  "mentÃ¡rias": 35270,
  "mentÃ¡rio": 26077,
  "mentÃ¡rios": 35831,
  "meo": 26485,
  "mer": 696,
  "mera": 19482,
  "meral": 15517,
  "meras": 7337,
  "mercado": 42096,
  "mere": 36181,
  "meria": 37531,
  "meric": 1422,
  "merica": 8657,
  "mero": 7556,
  "meros": 6420,
  "mers": 15721,
  "mery": 23446,
  "merÃ¢nia": 35113,
  "mes": 1147,
  "mesa": 49384,
  "mesmo": 28193,
  "messa": 12096,
  "mestre": 17907,
  "met": 17438,
  "meta": 40455,
  "metal": 27479,
  "meter": 47180,
  "metery": 37217,
  "metil": 39004,
  "metragem": 10562,
  "metragens": 23812,
  "metria": 14492,
  "metro": 11464,
  "metros": 5843,
  "mett": 42863,
  "metÃ¡": 42383,
  "meu": 15088,
  "mework": 38414,
  "mex": 48515,
  "meyer": 21979,
  "mez": 17070,
  "mg": 28222,
  "mi": 3137,
  "mia": 4495,
  "mias": 49717,
  "mic": 17521,
  "mica": 1773,
  "micamente": 40698,
  "micas": 10682,
  "mico": 5054,
  "micos": 10412,
  "mid": 17135,
  "mida": 11936,
  "midas": 20737,
  "mido": 13931,
  "midos": 21997,
  "midt": 22517,
  "mil": 9308,
  "mile": 23592,
  "milhÃµes": 49569,
  "militar": 25795,
  "militares": 35319,
  "mim": 47947,
  "min": 611,
  "mina": 1882,
  "minais": 15393,
  "minal": 7898,
  "minante": 6074,
  "minas": 14802,
  "mindo": 21230,
  "mine": 24968,
  "ming": 26857,
  "mingham": 24115,
  "minha": 42047,
  "mini": 34419,
  "minist": 1490,
  "ministra": 46620,
  "ministro": 6788,
  "ministros": 48170,
  "mino": 6629,
  "minster": 18909,
  "mio": 24295,
  "mir": 7925,
  "mira": 7462,
  "mirante": 9695,
  "mirna": 48639,
  "miro": 28713,
  "mis": 21039,
  "miss": 44834,
  "mission": 27619,
  "missÃ£o": 13186,
  "mit": 8658,
  "mite": 19233,
  "mith": 5231,
  "mitir": 30893,
  "mitt": 34608,
  "mittee": 44445,
  "miu": 29995,
  "mix": 46228,
  "ml": 24883,
  "mler": 36545,
  "mm": 7326,
  "mo": 401,
  "mobil": 7785,
  "mod": 15436,
  "modelo": 28334,
  "moder": 17478,
  "moderna": 31866,
  "modo": 19552,
  "modore": 49158,
  "modos": 37179,
  "moeda": 36862,
  "mografia": 35028,
  "mol": 19940,
  "mon": 3971,
  "mona": 30404,
  "monar": 22130,
  "mond": 6745,
  "monia": 27837,
  "mons": 19701,
  "mont": 7190,
  "monte": 25691,
  "monton": 40288,
  "mor": 3297,
  "moral": 32219,
  "more": 6964,
  "mores": 25322,
  "morf": 34627,
  "morou": 20756,
  "mortal": 33110,
  "morte": 37402,
  "morto": 45891,
  "morÃ¡": 46500,
  "mos": 906,
  "mosa": 20001,
  "mose": 43844,
  "moso": 26351,
  "mossex": 8230,
  "moto": 10489,
  "motor": 32877,
  "motoras": 48258,
  "motos": 32019,
  "mou": 1499,
  "mour": 22063,
  "mous": 40697,
  "mouth": 18362,
  "movimento": 46947,
  "moz": 40502,
  "mp": 466,
  "mpa": 10765,
  "mpe": 17991,
  "mper": 29696,
  "mph": 22389,
  "mpo": 26189,
  "mpor": 15758,
  "mporary": 39767,
  "mpos": 15457,
  "mpre": 1677,
  "mpson": 16775,
  "mpÃ§Ã£o": 49672,
  "ms": 6650,
  "msky": 44031,
  "mstadt": 41653,
  "mu": 4600,
  "mud": 29479,
  "muitas": 35127,
  "muito": 17253,
  "muitos": 44135,
  "mul": 6567,
  "mulher": 30617,
  "multi": 44030,
  "mun": 4529,
  "mund": 13180,
  "mundo": 12136,
  "munhas": 20253,
  "munic": 24244,
  "mur": 30511,
  "mura": 36544,
  "mus": 15959,
  "music": 19512,
  "my": 3449,
  "mys": 43945,
  "mÃ¡": 15504,
  "mÃ¡cia": 15860,
  "mÃ¡cias": 43192,
  "mÃ¡n": 31737,
  "mÃ¡tica": 6062,
  "mÃ¡ticas": 11432,
  "mÃ¡tico": 9318,
  "mÃ¡ticos": 15282,
  "mÃ¢nia": 13006,
  "mÃ¢nica": 43829,
  "mÃ¢nico": 16160,
  "mÃ£": 1312,
  "mÃ£e": 18521,
  "mÃ£o": 1579,
  "mÃ©": 8325,
  "mÃ©d": 26241,
  "mÃ©dia": 26734,
  "mÃ©dio": 13876,
  "mÃ©dios": 23257,
  "mÃ³": 38715,
  "mÃ³r": 31367,
  "mÃ´nio": 17803,
  "mÃµes": 18878,
  "mÃº": 46532,
  "mÃºsica": 30377,
  "mÃŃnio": 14668,
  "mÃŃnios": 36856,
  "n": 78,
  "na": 445,
  "nabis": 37431,
  "nacionais": 45811,
  "nacional": 1686,
  "naco": 20212,
  "nada": 18645,
  "nado": 14706,
  "nador": 2219,
  "nados": 30880,
  "nagem": 22286,
  "nagens": 48890,
  "nah": 32066,
  "nai": 35856,
  "nais": 5071,
  "nal": 7249,
  "naldo": 21196,
  "nam": 3642,
  "nambu": 5178,
  "name": 28141,
  "nament": 45280,
  "namo": 20356,
  "namorada": 40579,
  "namorado": 39577,
  "nan": 20966,
  "nando": 1788,
  "nant": 33717,
  "nar": 10896,
  "nard": 36414,
  "naro": 49542,
  "nas": 1427,
  "nascida": 19615,
  "nascido": 13374,
  "nascidos": 40560,
  "nasse": 36866,
  "nata": 22246,
  "natal": 43359,
  "nato": 40971,
  "naturais": 25208,
  "natural": 17071,
  "nau": 26422,
  "naval": 5410,
  "nave": 43566,
  "nay": 33286,
  "naz": 36888,
  "naÃ§Ã£o": 12733,
  "naÃ§Ãµes": 40381,
  "naÃŃba": 24129,
  "nc": 354,
  "nca": 2071,
  "ncamento": 25817,
  "ncan": 23650,
  "ncar": 16697,
  "ncavo": 40519,
  "nce": 1762,
  "ncer": 7510,
  "nces": 6493,
  "nch": 8069,
  "nche": 18390,
  "nchez": 27922,
  "nchi": 44300,
  "nci": 6162,
  "ncia": 460,
  "nciado": 15541,
  "nciais": 10009,
  "ncial": 3594,
  "ncialmente": 11433,
  "nciamento": 38163,
  "nciar": 43164,
  "ncil": 27523,
  "ncio": 37176,
  "ncista": 21723,
  "ncla": 17863,
  "nco": 3081,
  "ncora": 31000,
  "ncos": 17212,
  "nd": 289,
  "nda": 531,
  "ndada": 20022,
  "ndadas": 29439,
  "ndade": 22095,
  "ndado": 6312,
  "ndador": 15110,
  "ndados": 31262,
  "ndal": 28568,
  "ndale": 33808,
  "ndam": 19939,
  "ndamento": 28931,
  "ndan": 37131,
  "ndando": 41390,
  "ndante": 4204,
  "ndar": 12737,
  "ndarte": 26751,
  "ndas": 1783,
  "ndation": 16643,
  "nday": 23394,
  "nde": 449,
  "ndebol": 26819,
  "nded": 17864,
  "ndeira": 3760,
  "ndel": 20858,
  "ndela": 30856,
  "ndem": 3978,
  "ndemburgo": 29988,
  "nden": 36211,
  "ndendo": 3060,
  "ndente": 2005,
  "ndentes": 24339,
  "nder": 1468,
  "nderam": 7083,
  "ndere": 8981,
  "nderia": 44363,
  "nderland": 47308,
  "nders": 24487,
  "ndes": 1140,
  "ndesas": 18214,
  "ndeses": 8373,
  "ndesliga": 20259,
  "ndessa": 14261,
  "ndesse": 24797,
  "ndeu": 2083,
  "ndez": 11410,
  "ndi": 11567,
  "ndia": 1483,
  "ndiais": 9549,
  "ndial": 1516,
  "ndiam": 12170,
  "ndica": 29419,
  "ndida": 1890,
  "ndidas": 13283,
  "ndido": 2878,
  "ndidos": 12594,
  "ndie": 48516,
  "ndimento": 5234,
  "ndimentos": 20944,
  "ndin": 23378,
  "ndina": 19669,
  "nding": 29067,
  "ndinÃ¡via": 28073,
  "ndish": 44737,
  "ndisse": 38623,
  "ndissement": 44675,
  "ndiz": 23077,
  "ndo": 333,
  "ndole": 41265,
  "ndon": 7347,
  "ndor": 17827,
  "ndorf": 37495,
  "ndos": 3453,
  "ndoso": 38240,
  "ndou": 30388,
  "ndra": 12290,
  "ndro": 13146,
  "ndrome": 11487,
  "nds": 10221,
  "ndt": 40963,
  "ndu": 15573,
  "ndutores": 38944,
  "nduva": 47283,
  "ndy": 32800,
  "ndÃ¡rio": 7567,
  "ndÃ¡rios": 38869,
  "ndÃª": 20764,
  "ndÃªncia": 20637,
  "ne": 640,
  "nea": 17157,
  "neamente": 22663,
  "neapolis": 43604,
  "neas": 33812,
  "nec": 41042,
  "necess": 48508,
  "ned": 47725,
  "neg": 24021,
  "nega": 31965,
  "nego": 22260,
  "negos": 48974,
  "negra": 41310,
  "negro": 12884,
  "negÃ³cio": 42890,
  "nei": 44901,
  "neider": 28982,
  "neio": 40544,
  "neis": 47892,
  "nel": 19949,
  "nell": 16608,
  "nem": 29876,
  "nen": 26199,
  "neo": 21876,
  "ner": 2114,
  "nera": 21537,
  "neros": 15515,
  "ners": 28312,
  "nes": 4036,
  "nesota": 20623,
  "ness": 13842,
  "neste": 45215,
  "nesto": 12007,
  "net": 3041,
  "neta": 27880,
  "neth": 22340,
  "netismo": 26646,
  "neto": 14866,
  "netos": 45691,
  "nett": 15412,
  "nette": 28105,
  "neu": 14827,
  "neur": 44356,
  "neuve": 33978,
  "nev": 32040,
  "new": 37096,
  "ney": 2623,
  "neÃ¡rio": 39249,
  "ng": 915,
  "nga": 13007,
  "nge": 20291,
  "ngel": 29832,
  "nger": 16049,
  "ngos": 38108,
  "ngue": 30806,
  "ngular": 12616,
  "ngulares": 25648,
  "nha": 14410,
  "nhas": 46939,
  "nho": 21797,
  "nhos": 40298,
  "ni": 4108,
  "nia": 2326,
  "nibus": 6235,
  "nic": 26735,
  "nica": 20647,
  "nick": 27797,
  "nico": 20609,
  "nidade": 17007,
  "nie": 8274,
  "nier": 25866,
  "night": 22332,
  "nik": 17702,
  "nin": 33223,
  "ning": 7662,
  "ningham": 38120,
  "nio": 15102,
  "nios": 48660,
  "nis": 17682,
  "nismo": 28188,
  "nit": 34138,
  "nita": 28619,
  "nitas": 24475,
  "nium": 31290,
  "nius": 42499,
  "niz": 28027,
  "nm": 37567,
  "no": 422,
  "nock": 32975,
  "nodo": 17587,
  "noite": 22271,
  "nologia": 22458,
  "nom": 31790,
  "noma": 18758,
  "nome": 6835,
  "nomeado": 48777,
  "nomes": 20610,
  "nomia": 10808,
  "nomo": 28570,
  "non": 15604,
  "nor": 18964,
  "nordeste": 48293,
  "nores": 4748,
  "norma": 15163,
  "normais": 42798,
  "normal": 27871,
  "normalmente": 34929,
  "noroeste": 43883,
  "norte": 26765,
  "nos": 820,
  "nose": 33133,
  "not": 21338,
  "nota": 49540,
  "nou": 14129,
  "nov": 23187,
  "nova": 11744,
  "novas": 42903,
  "novela": 41173,
  "novo": 23383,
  "novos": 44005,
  "now": 4300,
  "nowiki": 5905,
  "nox": 48219,
  "noy": 43411,
  "ns": 370,
  "nsa": 2587,
  "nse": 17262,
  "nsen": 33716,
  "nses": 19098,
  "nsia": 47360,
  "nski": 33781,
  "nson": 37178,
  "nst": 17224,
  "nstein": 27961,
  "nster": 31572,
  "nsul": 8072,
  "nsylvania": 50195,
  "nt": 265,
  "nta": 663,
  "ntabilidade": 30646,
  "ntada": 8526,
  "ntadas": 12468,
  "ntado": 4575,
  "ntados": 8286,
  "ntain": 20176,
  "ntaine": 30409,
  "ntais": 46865,
  "ntal": 11011,
  "ntam": 6064,
  "ntamente": 2353,
  "ntamento": 6548,
  "ntamentos": 14079,
  "ntando": 6237,
  "ntar": 2561,
  "ntaram": 6690,
  "ntares": 41743,
  "ntas": 1984,
  "ntava": 21647,
  "ntaÃ§Ã£o": 6465,
  "nte": 301,
  "nted": 30764,
  "ntel": 29639,
  "ntem": 29946,
  "ntemente": 2534,
  "ntena": 32655,
  "nter": 528,
  "nterim": 44006,
  "nterior": 12768,
  "nteriormente": 13516,
  "nterna": 24422,
  "nternas": 37254,
  "ntero": 28046,
  "nterpre": 42485,
  "nterprise": 20505,
  "ntertain": 5991,
  "ntertainment": 6040,
  "ntes": 478,
  "ntese": 10024,
  "nteses": 31939,
  "nth": 22296,
  "nthia": 40589,
  "nti": 14674,
  "ntia": 23661,
  "ntic": 19308,
  "ntidÃ£o": 38198,
  "ntil": 35350,
  "ntim": 40453,
  "ntimento": 14830,
  "ntina": 40588,
  "ntino": 18231,
  "ntis": 36108,
  "ntismo": 19089,
  "nto": 351,
  "ntom": 22549,
  "nton": 20881,
  "ntor": 23365,
  "ntos": 952,
  "ntosh": 34913,
  "ntou": 2648,
  "ntown": 43774,
  "ntra": 42239,
  "ntre": 1411,
  "ntro": 1242,
  "ntroduÃ§Ã£o": 28916,
  "nts": 11889,
  "ntu": 4181,
  "ntura": 23316,
  "ntz": 45146,
  "ntÃ¡rio": 19935,
  "ntÃ£o": 5046,
  "nu": 14547,
  "num": 26434,
  "numa": 47355,
  "nunca": 38991,
  "nus": 26665,
  "ny": 4215,
  "nyder": 41367,
  "nza": 49094,
  "nÃ¡": 3923,
  "nÃ¡culo": 38697,
  "nÃ¡n": 42360,
  "nÃ¡ndez": 18350,
  "nÃ¡polis": 26490,
  "nÃ¡ria": 39698,
  "nÃ¡rio": 10584,
  "nÃ£": 12157,
  "nÃ£o": 5122,
  "nÃ§a": 1185,
  "nÃ§as": 1974,
  "nÃ©": 49657,
  "nÃ©e": 41165,
  "nÃ©us": 36950,
  "nÃ³": 34981,
  "nÃ³polis": 12673,
  "nÃ³s": 20547,
  "nÃ³stico": 29558,
  "nÃ³sticos": 40248,
  "nÃº": 23531,
  "nÃºmero": 30620,
  "nÃŃvel": 47597,
  "o": 79,
  "oa": 3627,
  "ob": 11888,
  "obra": 18001,
  "obs": 34955,
  "oby": 42619,
  "oc": 574,
  "oca": 32526,
  "ocada": 26642,
  "ocadas": 41007,
  "ocado": 23035,
  "ocados": 33586,
  "ocal": 21304,
  "ocar": 18127,
  "ocas": 17543,
  "oceno": 36795,
  "ocero": 33686,
  "och": 12038,
  "oche": 20413,
  "ochet": 42462,
  "ochtit": 49572,
  "ocidade": 18385,
  "ock": 11545,
  "ockey": 29882,
  "ocl": 5169,
  "oclas": 37763,
  "ocou": 40734,
  "ocra": 13720,
  "ocultura": 40735,
  "ocup": 20668,
  "ocupa": 34370,
  "ocupada": 46925,
  "ocupado": 36814,
  "ocupaÃ§Ã£o": 46660,
  "ocÃª": 8731,
  "ocÃªs": 50114,
  "ocÃŃdio": 22102,
  "od": 1711,
  "ode": 35943,
  "odo": 1184,
  "odor": 9173,
  "odora": 26512,
  "odore": 24557,
  "odorico": 35649,
  "odoro": 12666,
  "odos": 6848,
  "ody": 23635,
  "oeste": 22354,
  "of": 6456,
  "ofensiva": 45514,
  "off": 12160,
  "offs": 30316,
  "oficiais": 44997,
  "oficial": 24551,
  "oficialmente": 41110,
  "og": 558,
  "ogal": 18665,
  "ogames": 25614,
  "oge": 42486,
  "ogen": 15042,
  "ogi": 42426,
  "ogia": 17740,
  "ogie": 32808,
  "ogle": 10211,
  "oglo": 37926,
  "oglobina": 44893,
  "ogo": 878,
  "ogra": 4162,
  "ografia": 5783,
  "ografias": 41190,
  "ograficamente": 27851,
  "ograma": 29881,
  "ogramas": 28677,
  "ographic": 31135,
  "ogrÃ¡fica": 17073,
  "ogrÃ¡ficas": 32845,
  "ogrÃ¡fico": 16763,
  "ogrÃ¡ficos": 36864,
  "oh": 28076,
  "oi": 981,
  "oint": 14445,
  "oire": 35511,
  "ois": 25082,
  "oito": 11945,
  "ok": 2526,
  "oka": 32090,
  "oke": 22555,
  "oker": 29786,
  "okie": 32883,
  "oko": 17525,
  "oks": 33561,
  "oku": 25985,
  "ol": 332,
  "ola": 829,
  "oland": 6991,
  "olanda": 8400,
  "olar": 11053,
  "olares": 12088,
  "olas": 6957,
  "olatria": 44254,
  "old": 3538,
  "oldado": 49423,
  "olding": 39511,
  "olds": 22218,
  "oldt": 33296,
  "ole": 10035,
  "oler": 13765,
  "olerÃ¢ncia": 15617,
  "oles": 22096,
  "olf": 5931,
  "olfo": 10150,
  "olho": 44299,
  "olhos": 47119,
  "oli": 8678,
  "olia": 20903,
  "olic": 48734,
  "olim": 42716,
  "olin": 29460,
  "olina": 15709,
  "olini": 19174,
  "olino": 50103,
  "olis": 5139,
  "olk": 35532,
  "oll": 27480,
  "olla": 43615,
  "olli": 47796,
  "oln": 12990,
  "olo": 2199,
  "oloca": 21033,
  "olocausto": 22442,
  "olog": 1111,
  "ologia": 1340,
  "ologias": 6574,
  "ological": 29568,
  "ologicamente": 12997,
  "ologie": 47493,
  "ologies": 39288,
  "ologista": 17858,
  "ologistas": 25949,
  "ology": 13482,
  "olor": 10719,
  "olores": 23072,
  "olos": 5353,
  "olph": 26930,
  "ols": 12789,
  "olu": 34391,
  "olulu": 47797,
  "oly": 47669,
  "olÃ©u": 26361,
  "olÃ³g": 1564,
  "olÃ³gica": 3770,
  "olÃ³gicas": 5148,
  "olÃ³gico": 3569,
  "olÃ³gicos": 5001,
  "olÃŃtica": 41824,
  "olÃŃtico": 18152,
  "om": 737,
  "oma": 25055,
  "omas": 49530,
  "ome": 3571,
  "omerang": 47829,
  "ometria": 13625,
  "omi": 18359,
  "omia": 2517,
  "omina": 46687,
  "oming": 42540,
  "omo": 32089,
  "omon": 28365,
  "omor": 38805,
  "omÃ©": 10717,
  "on": 308,
  "ona": 832,
  "onais": 43560,
  "onal": 4112,
  "onald": 7012,
  "onaldo": 15823,
  "onamento": 42868,
  "onaria": 19685,
  "onaro": 16860,
  "onas": 3847,
  "onata": 26605,
  "onato": 1555,
  "onatos": 8036,
  "ondas": 36178,
  "onde": 8434,
  "one": 1918,
  "onel": 3495,
  "onely": 39863,
  "onen": 43351,
  "onense": 32590,
  "ones": 4339,
  "onesa": 37523,
  "onete": 23110,
  "onetes": 27991,
  "oney": 10742,
  "ong": 1956,
  "onga": 29178,
  "ongo": 23066,
  "ongos": 32217,
  "onha": 10828,
  "oni": 8681,
  "onia": 7685,
  "oniais": 26047,
  "onial": 11720,
  "onic": 44632,
  "onica": 26838,
  "onio": 25376,
  "onis": 47952,
  "onista": 34142,
  "onizaÃ§Ã£o": 19123,
  "online": 27760,
  "only": 29162,
  "onlyinclude": 29600,
  "onna": 5389,
  "onne": 34389,
  "ono": 4283,
  "ons": 679,
  "onso": 15603,
  "onson": 41683,
  "onstru": 4552,
  "onsÃ¡vel": 28364,
  "ont": 742,
  "ontade": 6380,
  "onte": 4640,
  "ontes": 41346,
  "ony": 3773,
  "onÃ¢ncia": 40266,
  "onÃ©sia": 13182,
  "onÃªs": 30920,
  "oo": 49314,
  "ood": 3189,
  "op": 3908,
  "opard": 45342,
  "ope": 23626,
  "oper": 30448,
  "opera": 25017,
  "ople": 15551,
  "ops": 38954,
  "or": 270,
  "ora": 1479,
  "orados": 39326,
  "oras": 39583,
  "ord": 936,
  "orda": 3109,
  "orde": 3472,
  "ordem": 16774,
  "orden": 4053,
  "ordena": 29106,
  "ordens": 39595,
  "ordes": 9420,
  "ordeste": 4461,
  "ordial": 18706,
  "ordo": 1262,
  "ordos": 11926,
  "ords": 25718,
  "ore": 5362,
  "orema": 11113,
  "oremas": 39869,
  "ores": 2945,
  "orf": 11361,
  "orfismo": 23440,
  "orfose": 36691,
  "org": 7850,
  "organ": 7168,
  "organismos": 34741,
  "organizaÃ§Ã£o": 45306,
  "orge": 2385,
  "orgh": 46169,
  "orgia": 18936,
  "ori": 2829,
  "oria": 1232,
  "oriadores": 39908,
  "oriais": 17965,
  "orial": 10848,
  "oriamente": 26672,
  "oriana": 18578,
  "oriano": 17298,
  "orianos": 28405,
  "orias": 3441,
  "oricamente": 19122,
  "orient": 30712,
  "ories": 46564,
  "orig": 23869,
  "originalmente": 38574,
  "orio": 32677,
  "oris": 26982,
  "oriÃº": 47503,
  "ork": 2307,
  "orks": 15496,
  "orld": 3565,
  "orm": 18739,
  "orma": 1780,
  "orme": 3684,
  "ormes": 8968,
  "orn": 1171,
  "orna": 31100,
  "ornada": 9201,
  "ornadas": 32044,
  "ornal": 1662,
  "ornia": 18300,
  "orning": 22210,
  "orno": 10659,
  "ornos": 21811,
  "oro": 2273,
  "oroas": 40051,
  "oroeste": 6437,
  "orou": 10889,
  "orp": 29754,
  "orpiÃ£o": 47717,
  "orpo": 3986,
  "orr": 2288,
  "orra": 7350,
  "orre": 785,
  "orreg": 11095,
  "orregiÃ£o": 14347,
  "orregiÃµes": 30935,
  "orreu": 9512,
  "orria": 34024,
  "orriam": 47663,
  "orrida": 26810,
  "orrido": 21062,
  "orridos": 38475,
  "orro": 6901,
  "orros": 34956,
  "orrow": 27909,
  "orrÃªncia": 7921,
  "orrÃ³": 43640,
  "ors": 9833,
  "ort": 14499,
  "orta": 992,
  "ortais": 36776,
  "ortal": 16576,
  "ortaleza": 7263,
  "ortamento": 44798,
  "orte": 648,
  "ortes": 47873,
  "orth": 9539,
  "orto": 46168,
  "orts": 47242,
  "oru": 29418,
  "orub": 35944,
  "orum": 21907,
  "ory": 8207,
  "orÃ¡vel": 43614,
  "orÃ©": 32589,
  "orÃ³": 22810,
  "os": 264,
  "osa": 1463,
  "osamente": 7860,
  "osas": 3973,
  "ose": 5984,
  "osfera": 48149,
  "osh": 12939,
  "oshi": 16264,
  "osidade": 33022,
  "oso": 1314,
  "osofia": 4002,
  "osos": 3057,
  "osovo": 22854,
  "oss": 1869,
  "ossa": 20315,
  "osse": 37732,
  "ossi": 37935,
  "osso": 24941,
  "ost": 34301,
  "osta": 1460,
  "oster": 46473,
  "osto": 1119,
  "ostok": 49490,
  "ot": 3433,
  "ota": 11247,
  "ote": 40909,
  "oter": 34448,
  "oth": 26998,
  "oto": 33200,
  "oton": 38376,
  "ots": 28472,
  "otto": 48181,
  "otÃ©r": 36366,
  "ou": 323,
  "ouco": 5645,
  "oud": 15663,
  "ough": 16217,
  "ouk": 43256,
  "oul": 6021,
  "ould": 36418,
  "oun": 32509,
  "ound": 27128,
  "ount": 13183,
  "our": 1836,
  "oura": 14257,
  "ouras": 29500,
  "ource": 23546,
  "oureiro": 24909,
  "ouri": 15415,
  "ourinho": 40653,
  "ournal": 14225,
  "ourney": 32734,
  "ouro": 6081,
  "ouros": 10326,
  "ours": 29467,
  "ourt": 12956,
  "ous": 3909,
  "ouse": 5923,
  "ouste": 30845,
  "ouston": 12674,
  "out": 8826,
  "outro": 37617,
  "outs": 41914,
  "ouve": 2800,
  "ouveau": 32907,
  "ouveia": 27714,
  "oux": 34985,
  "ov": 1391,
  "ovan": 41457,
  "ove": 29086,
  "over": 821,
  "overs": 31377,
  "ovich": 44801,
  "ovna": 44924,
  "ovÃ¡": 18652,
  "ow": 41820,
  "ox": 21728,
  "p": 80,
  "pa": 444,
  "pac": 37410,
  "pace": 9292,
  "pacho": 47128,
  "pad": 15199,
  "pada": 14475,
  "padas": 35242,
  "pado": 9948,
  "pador": 36979,
  "padores": 50094,
  "pados": 23442,
  "padrÃ£o": 34497,
  "paganda": 24771,
  "pagem": 30813,
  "pagne": 48526,
  "pago": 41681,
  "paguÃ¡": 39660,
  "pai": 21221,
  "pais": 1664,
  "pal": 4538,
  "pala": 25362,
  "palas": 33423,
  "paldi": 50067,
  "palha": 37521,
  "pam": 16254,
  "pan": 6947,
  "pando": 40826,
  "panema": 43613,
  "panha": 1628,
  "panhe": 48703,
  "papo": 48014,
  "par": 1410,
  "para": 1330,
  "param": 15003,
  "paras": 47015,
  "paraÃŃso": 44646,
  "pard": 31664,
  "pardo": 31405,
  "pardos": 45388,
  "pare": 2493,
  "parel": 34328,
  "pari": 46619,
  "parica": 41054,
  "park": 43474,
  "paro": 10319,
  "parou": 9296,
  "part": 33932,
  "parta": 8888,
  "partamento": 3949,
  "partamentos": 13856,
  "parte": 11755,
  "partic": 26472,
  "particularmente": 45600,
  "partid": 35000,
  "parÃ¡": 32978,
  "parÃªncia": 21246,
  "pas": 1803,
  "pasiano": 31677,
  "pass": 5708,
  "passa": 15679,
  "passe": 31989,
  "pat": 36486,
  "pata": 24180,
  "pate": 18432,
  "path": 44693,
  "patia": 20611,
  "pato": 28626,
  "patologia": 47538,
  "patos": 36087,
  "patra": 23930,
  "patro": 44907,
  "pau": 32247,
  "pausa": 46109,
  "pava": 41489,
  "pay": 36275,
  "paz": 27897,
  "paÃ§a": 36086,
  "paÃ§o": 36824,
  "paÃ§Ã£o": 33260,
  "paÃŃs": 44305,
  "pcias": 34173,
  "pdf": 43349,
  "pe": 387,
  "pea": 46297,
  "pec": 1426,
  "peche": 43016,
  "pecta": 8642,
  "pector": 28813,
  "pecu": 13314,
  "pecÃ§Ã£o": 32620,
  "pecÃ³": 37934,
  "ped": 2139,
  "peda": 18139,
  "pedeiros": 33067,
  "pedia": 30283,
  "pedic": 24503,
  "pedra": 42916,
  "pei": 38753,
  "peia": 18161,
  "peias": 31317,
  "peis": 32243,
  "peito": 41722,
  "pel": 1508,
  "pela": 20754,
  "pelin": 23705,
  "pell": 35377,
  "pella": 41595,
  "pellier": 42334,
  "pelo": 19981,
  "pelos": 39711,
  "pem": 33224,
  "pemirim": 41626,
  "pen": 2091,
  "pend": 2066,
  "pendendo": 22589,
  "pendente": 3025,
  "pendentes": 6113,
  "pendÃªncia": 3404,
  "penh": 7300,
  "penha": 16498,
  "pens": 32472,
  "pensa": 13069,
  "penso": 17299,
  "pent": 17496,
  "pente": 16196,
  "pentes": 33122,
  "peonato": 1598,
  "pequ": 24464,
  "pequeno": 44342,
  "per": 656,
  "pera": 692,
  "perador": 2694,
  "peram": 13383,
  "peras": 13422,
  "peraÃ§Ã£o": 5156,
  "pere": 35405,
  "performance": 48161,
  "peri": 1897,
  "peridade": 16752,
  "permas": 48303,
  "pero": 11660,
  "peros": 41875,
  "perou": 11093,
  "pers": 14664,
  "person": 36546,
  "pert": 25365,
  "perto": 37186,
  "perÃŃodo": 42954,
  "pes": 2920,
  "pesados": 40611,
  "pesas": 14290,
  "pescagem": 31818,
  "peso": 40283,
  "pesso": 19201,
  "pessoa": 47518,
  "pessoas": 37943,
  "pest": 5402,
  "pestres": 41805,
  "pet": 22521,
  "peta": 47672,
  "pete": 35727,
  "petÃªncia": 44729,
  "peu": 8051,
  "peuta": 30786,
  "peutas": 45256,
  "pez": 10203,
  "peza": 14561,
  "peÃ£": 35296,
  "peÃ£o": 5623,
  "pf": 37372,
  "pg": 32996,
  "ph": 1832,
  "pha": 11279,
  "phan": 42353,
  "phe": 22207,
  "phen": 35836,
  "pher": 11077,
  "phia": 14016,
  "phic": 22774,
  "phie": 24164,
  "phil": 40792,
  "phila": 44188,
  "phis": 23922,
  "pho": 19557,
  "phon": 31151,
  "phone": 23782,
  "phones": 32101,
  "phonse": 47996,
  "phoon": 44619,
  "php": 45826,
  "phy": 9560,
  "phyl": 35582,
  "phyta": 40401,
  "pi": 6422,
  "pia": 4268,
  "piano": 36705,
  "pic": 20636,
  "pica": 39939,
  "pice": 19087,
  "pid": 30317,
  "pida": 2627,
  "pidamente": 3423,
  "pide": 29778,
  "pides": 50186,
  "pido": 18188,
  "pie": 23287,
  "pier": 44576,
  "pies": 43996,
  "pig": 43771,
  "pil": 37649,
  "piloto": 30959,
  "pim": 36209,
  "pin": 6696,
  "pina": 16391,
  "pine": 37051,
  "ping": 19282,
  "pino": 19807,
  "pint": 24992,
  "pinte": 32198,
  "pio": 15087,
  "pion": 5530,
  "pir": 29206,
  "pira": 2118,
  "pirado": 29367,
  "piranga": 15766,
  "piraÃ§Ã£o": 24970,
  "pirit": 46506,
  "piro": 36379,
  "pirou": 12475,
  "pis": 18709,
  "pista": 41444,
  "pistas": 49173,
  "pit": 20362,
  "pita": 35134,
  "pital": 3163,
  "pito": 34001,
  "pl": 967,
  "pla": 1953,
  "place": 26266,
  "plan": 16876,
  "plane": 26244,
  "plano": 31068,
  "plares": 9733,
  "plas": 5192,
  "plasia": 41651,
  "plasma": 27920,
  "plastia": 49909,
  "plataforma": 49205,
  "platina": 39165,
  "play": 11471,
  "player": 25937,
  "ple": 3074,
  "pler": 16341,
  "ples": 2262,
  "plex": 25170,
  "plic": 7490,
  "plica": 9610,
  "plicando": 28864,
  "plicas": 30862,
  "plicaÃ§Ã£o": 12479,
  "plicaÃ§Ãµes": 40739,
  "plicidade": 34150,
  "plicou": 48930,
  "plin": 24621,
  "plit": 32250,
  "plo": 951,
  "plona": 25694,
  "plos": 3502,
  "plu": 38716,
  "plÃ¢ncton": 48678,
  "pm": 24116,
  "po": 381,
  "pobre": 30107,
  "poca": 19629,
  "pod": 41536,
  "poda": 34942,
  "pode": 19582,
  "poder": 23792,
  "poderes": 47671,
  "podes": 15744,
  "poem": 39850,
  "point": 33284,
  "pois": 694,
  "pol": 2027,
  "pola": 46291,
  "polar": 32537,
  "polaÃ§Ã£o": 49498,
  "pole": 5057,
  "poles": 13278,
  "poli": 26844,
  "polim": 44320,
  "polis": 10291,
  "polita": 4314,
  "politano": 39512,
  "polo": 24842,
  "polÃŃtica": 29199,
  "polÃŃtico": 41057,
  "pon": 1208,
  "pondo": 8856,
  "ponesa": 35307,
  "ponha": 34700,
  "ponsa": 5128,
  "ponsabilidade": 38981,
  "pont": 35027,
  "ponte": 42533,
  "ponto": 19288,
  "pontos": 48813,
  "ponÃªs": 45237,
  "ponÃŃvel": 27660,
  "pool": 11044,
  "poon": 48589,
  "pop": 5921,
  "popular": 23331,
  "populares": 46401,
  "populaÃ§Ã£o": 45345,
  "popÃ³ta": 44443,
  "por": 779,
  "pora": 15936,
  "poranga": 45373,
  "pore": 49388,
  "pores": 46678,
  "poro": 39121,
  "porque": 37140,
  "port": 4524,
  "porta": 32291,
  "portador": 27595,
  "porte": 2388,
  "portes": 9973,
  "portiva": 11731,
  "portivo": 9640,
  "porto": 4029,
  "portos": 11972,
  "ports": 11754,
  "portugu": 26737,
  "portuguÃªs": 38154,
  "portun": 38248,
  "porÃ£": 48605,
  "porÃ©": 42430,
  "pos": 582,
  "posa": 15745,
  "posas": 33614,
  "positivos": 49889,
  "posiÃ§Ã£o": 2095,
  "posiÃ§Ãµes": 6780,
  "poso": 24233,
  "poss": 28278,
  "possivelmente": 40818,
  "post": 45814,
  "posta": 2209,
  "postamente": 8913,
  "postas": 4698,
  "posteriormente": 39155,
  "posto": 3785,
  "postos": 7709,
  "pot": 8521,
  "pota": 45933,
  "potismo": 42225,
  "potÃ¢mia": 20322,
  "potÃªncia": 33096,
  "pou": 10020,
  "pov": 43621,
  "povo": 26200,
  "power": 44530,
  "pp": 4158,
  "ppa": 19836,
  "ppard": 47083,
  "ppe": 12883,
  "ppen": 16981,
  "pper": 12281,
  "ppers": 19570,
  "pping": 10303,
  "ppings": 44498,
  "ppler": 42620,
  "ppy": 19000,
  "pr": 13960,
  "pra": 7296,
  "prah": 46825,
  "prano": 22453,
  "pre": 925,
  "pree": 6825,
  "preend": 25110,
  "pref": 34113,
  "prefeito": 13460,
  "prefeitura": 46849,
  "prem": 46471,
  "pres": 619,
  "presa": 27360,
  "present": 9987,
  "presenta": 8901,
  "presentaÃ§Ã£o": 23571,
  "presente": 31087,
  "presentou": 24532,
  "presidente": 5452,
  "presidentes": 39703,
  "presidÃªncia": 40153,
  "press": 8085,
  "pressa": 25741,
  "presso": 18427,
  "pressÃ£o": 5472,
  "preta": 45561,
  "preto": 36747,
  "pri": 1382,
  "priaÃ§Ã£o": 20076,
  "prima": 16335,
  "primas": 23989,
  "primeira": 24898,
  "primeiro": 18762,
  "prin": 12995,
  "princip": 16521,
  "principal": 49852,
  "principalmente": 19332,
  "print": 29624,
  "pris": 41347,
  "prise": 17518,
  "prises": 47721,
  "pro": 1733,
  "proble": 37997,
  "proc": 45335,
  "process": 26220,
  "processo": 48620,
  "proclam": 40352,
  "produ": 26920,
  "produto": 40049,
  "produtor": 35060,
  "produtos": 47520,
  "produz": 48761,
  "produzido": 38215,
  "produÃ§Ã£o": 15616,
  "prof": 19937,
  "professor": 47991,
  "profiss": 39691,
  "programa": 39746,
  "projeto": 38773,
  "promo": 36718,
  "pron": 31706,
  "prop": 32960,
  "propri": 19664,
  "pros": 34528,
  "protagon": 45884,
  "prote": 23232,
  "prov": 20788,
  "provavelmente": 29093,
  "provÃŃncia": 47411,
  "prÃ©": 36210,
  "prÃŃncipe": 41709,
  "ps": 2759,
  "pse": 16786,
  "psey": 48959,
  "psi": 36465,
  "psia": 31316,
  "psic": 30151,
  "psicologia": 48504,
  "psis": 32906,
  "pso": 8852,
  "psons": 23976,
  "psy": 46758,
  "pt": 5503,
  "pta": 13939,
  "pter": 37568,
  "ptera": 34811,
  "pto": 6802,
  "pton": 12092,
  "ptos": 13096,
  "ptÃŃveis": 36438,
  "ptÃŃvel": 28321,
  "pu": 955,
  "pua": 24250,
  "puava": 48677,
  "publ": 27881,
  "public": 4214,
  "publica": 47786,
  "pul": 4650,
  "pulha": 43482,
  "punk": 23210,
  "puntura": 45997,
  "pur": 19362,
  "pura": 11236,
  "pus": 9533,
  "puseram": 17950,
  "put": 33502,
  "putnik": 38310,
  "px": 31718,
  "py": 18844,
  "pzig": 24049,
  "pÃ¡": 14256,
  "pÃ£o": 2707,
  "pÃ§Ã£o": 2812,
  "pÃ§Ãµes": 21104,
  "pÃ©": 7026,
  "pÃ©ia": 40866,
  "pÃ©ias": 35712,
  "pÃ©s": 29852,
  "pÃ©u": 16676,
  "pÃ©us": 34491,
  "pÃª": 32949,
  "pÃ³": 25867,
  "pÃ³s": 40104,
  "pÃµe": 22468,
  "pÃµes": 41530,
  "pÃºblica": 2130,
  "pÃŃcio": 37125,
  "q": 81,
  "qa": 29087,
  "qi": 46668,
  "qu": 282,
  "qua": 18480,
  "quad": 6776,
  "qual": 13758,
  "qualquer": 42456,
  "quando": 15309,
  "quanto": 1026,
  "quar": 21459,
  "quara": 17935,
  "quare": 35243,
  "quari": 38302,
  "quase": 28686,
  "quatro": 28535,
  "que": 577,
  "quec": 33551,
  "quece": 48529,
  "quecimento": 46041,
  "qued": 11393,
  "quedas": 31238,
  "quedistas": 29136,
  "quedo": 25843,
  "quedos": 15975,
  "quei": 20931,
  "queira": 12777,
  "queiro": 13484,
  "queiros": 19160,
  "queirÃ£o": 44687,
  "quel": 14330,
  "quela": 3425,
  "quelas": 16296,
  "quele": 2370,
  "queles": 8869,
  "queleto": 40656,
  "queline": 29672,
  "quem": 20211,
  "quenta": 10608,
  "quente": 25528,
  "quentes": 41579,
  "quer": 1108,
  "quera": 31016,
  "querda": 15376,
  "querque": 12070,
  "ques": 1462,
  "quesa": 7972,
  "quese": 42297,
  "queses": 25210,
  "quest": 40215,
  "questra": 4673,
  "quet": 29073,
  "queta": 29104,
  "quetas": 30923,
  "quete": 6521,
  "quetebol": 17736,
  "quetes": 23644,
  "quez": 17256,
  "qui": 7595,
  "quia": 1975,
  "quiais": 36936,
  "quial": 26694,
  "quias": 12125,
  "quiel": 38378,
  "quiem": 40015,
  "quil": 8044,
  "quila": 20116,
  "quilo": 15306,
  "quilÃ³metros": 38560,
  "quim": 4299,
  "quin": 11669,
  "quina": 11486,
  "quinas": 26736,
  "quinha": 29926,
  "quinho": 19185,
  "quinhos": 31348,
  "quino": 34267,
  "quins": 46360,
  "quio": 28787,
  "quir": 29018,
  "quiri": 39242,
  "quis": 1227,
  "quisiÃ§Ã£o": 7414,
  "quismo": 19074,
  "quist": 21229,
  "quista": 6839,
  "quistan": 29595,
  "quistas": 12012,
  "quistou": 3765,
  "quistÃ£o": 9504,
  "quit": 32633,
  "quita": 10187,
  "quitas": 28116,
  "quite": 24908,
  "quiti": 39150,
  "quito": 25736,
  "quitos": 33413,
  "quo": 41534,
  "quos": 49798,
  "quÃª": 22518,
  "quÃªncia": 2765,
  "quÃªs": 7221,
  "quÃŃ": 35945,
  "quÃŃm": 18272,
  "quÃŃmica": 17529,
  "quÃŃmicas": 38993,
  "quÃŃmico": 34662,
  "quÃŃmicos": 35372,
  "quÃŃn": 28959,
  "qÃ¼": 5221,
  "r": 82,
  "ra": 260,
  "rac": 13015,
  "raca": 30971,
  "racles": 48568,
  "rad": 7075,
  "rada": 783,
  "radas": 2192,
  "rade": 8482,
  "radias": 27311,
  "radicamente": 35128,
  "radicaÃ§Ã£o": 45001,
  "radio": 47294,
  "rado": 932,
  "rador": 7113,
  "radora": 20669,
  "radores": 3664,
  "rados": 2319,
  "rael": 4025,
  "raft": 34366,
  "rag": 31216,
  "rage": 35326,
  "ragem": 17136,
  "rah": 28323,
  "rainha": 48962,
  "rais": 2067,
  "ral": 723,
  "ralmente": 10027,
  "raltar": 28985,
  "ram": 409,
  "rama": 3551,
  "ramas": 2705,
  "ramaturgia": 46963,
  "ramente": 7398,
  "ramento": 10879,
  "ramentos": 39003,
  "ramer": 37695,
  "rameric": 35328,
  "rames": 31964,
  "ramos": 20462,
  "ramÃ£o": 43162,
  "ran": 709,
  "rana": 40500,
  "ranas": 20227,
  "ranc": 791,
  "rance": 38107,
  "ranches": 48455,
  "rand": 49871,
  "rando": 2613,
  "rane": 41725,
  "rang": 2846,
  "ranga": 35701,
  "range": 6737,
  "rango": 35861,
  "rangular": 20433,
  "ranha": 11049,
  "ranhas": 28280,
  "rani": 49607,
  "rania": 36745,
  "rank": 3409,
  "ranking": 9234,
  "rano": 17484,
  "ranos": 12266,
  "rant": 43156,
  "rante": 15004,
  "rantes": 27088,
  "ranÃ§a": 1299,
  "ranÃ§as": 15241,
  "rap": 22725,
  "rapes": 45983,
  "rapper": 24276,
  "raque": 36587,
  "rar": 1015,
  "raram": 6606,
  "rard": 30608,
  "raria": 11558,
  "rariamente": 11161,
  "rarias": 32615,
  "rary": 18213,
  "ras": 400,
  "rasco": 24994,
  "rase": 35379,
  "rash": 15501,
  "rass": 24982,
  "rasse": 11142,
  "rassem": 18133,
  "rasta": 27019,
  "rasto": 27688,
  "rat": 24648,
  "rata": 39039,
  "rate": 39198,
  "ration": 8369,
  "rativa": 9278,
  "rativamente": 48080,
  "rativas": 17180,
  "rativo": 10974,
  "rativos": 16488,
  "rato": 21629,
  "ratura": 3875,
  "rav": 948,
  "rava": 5658,
  "ravam": 22399,
  "raven": 32022,
  "raves": 46613,
  "ravo": 15103,
  "ravos": 21189,
  "ravura": 23973,
  "rax": 20763,
  "ray": 8960,
  "raz": 19734,
  "raÃ§a": 46034,
  "raÃ§Ã£o": 852,
  "raÃ§Ãµes": 2504,
  "rb": 1746,
  "rd": 18530,
  "re": 266,
  "rea": 1050,
  "read": 39537,
  "reak": 13049,
  "reaking": 40117,
  "real": 6619,
  "realismo": 48775,
  "reality": 24433,
  "ream": 20593,
  "reamento": 23472,
  "rear": 43887,
  "reas": 2004,
  "reat": 47241,
  "reau": 17340,
  "reaÃ§Ã£o": 29560,
  "rebe": 41082,
  "rec": 19287,
  "rechal": 10597,
  "reck": 41784,
  "red": 1753,
  "rede": 40071,
  "redes": 46727,
  "redo": 4743,
  "redos": 38924,
  "ree": 3503,
  "ref": 3281,
  "refa": 7875,
  "refas": 10393,
  "reg": 2137,
  "regada": 45502,
  "regado": 7681,
  "regar": 46035,
  "regente": 46959,
  "regiÃ£o": 24267,
  "rego": 18307,
  "regon": 20415,
  "regos": 26578,
  "rei": 8217,
  "reia": 3984,
  "reich": 43060,
  "rein": 38301,
  "reio": 21151,
  "reira": 1346,
  "reiras": 11149,
  "reiro": 1401,
  "reiros": 8885,
  "reis": 34211,
  "reitor": 49533,
  "rek": 26849,
  "rel": 3083,
  "rela": 10568,
  "relas": 42712,
  "rele": 29975,
  "relig": 23868,
  "rell": 13406,
  "rella": 21206,
  "relles": 28899,
  "relli": 21550,
  "rello": 42920,
  "relo": 19878,
  "relÃ©trica": 23556,
  "relÃ³gio": 35122,
  "rem": 814,
  "rema": 18396,
  "remake": 35396,
  "remes": 27777,
  "remix": 26531,
  "remixes": 48868,
  "remo": 41207,
  "remos": 12109,
  "ren": 2490,
  "rena": 4908,
  "renal": 26624,
  "renalina": 43767,
  "rence": 12074,
  "rendo": 18253,
  "rene": 47661,
  "renga": 37149,
  "rengo": 48989,
  "renhas": 27073,
  "renho": 48836,
  "reno": 20696,
  "renos": 48729,
  "rens": 43157,
  "rense": 10604,
  "renses": 34882,
  "rent": 14189,
  "renÃ§o": 10743,
  "reo": 10222,
  "reos": 42861,
  "rep": 31738,
  "represent": 34847,
  "representa": 45422,
  "requis": 42811,
  "rer": 6496,
  "rera": 23691,
  "rero": 18590,
  "rers": 38985,
  "res": 328,
  "resa": 6504,
  "rese": 29459,
  "resp": 17009,
  "respo": 2938,
  "responsÃ¡vel": 36375,
  "ress": 1325,
  "ressa": 8328,
  "ressado": 48614,
  "ressante": 46971,
  "resse": 10196,
  "ressem": 49273,
  "resso": 2639,
  "ressores": 38001,
  "ressou": 21306,
  "ressÃ£o": 4974,
  "rest": 4498,
  "resta": 46999,
  "reste": 19521,
  "restes": 37758,
  "restle": 17165,
  "restling": 8850,
  "restre": 8430,
  "restres": 10778,
  "ret": 8902,
  "reta": 16967,
  "rete": 21142,
  "reto": 2480,
  "retos": 26693,
  "rett": 17081,
  "retto": 46795,
  "reu": 21415,
  "reux": 47599,
  "revista": 49949,
  "revolucion": 38956,
  "revoluÃ§Ã£o": 41911,
  "rew": 35724,
  "rex": 38028,
  "rey": 5901,
  "rez": 7205,
  "reza": 12144,
  "ri": 299,
  "ria": 446,
  "riado": 12222,
  "rial": 27003,
  "riam": 5330,
  "riamente": 4309,
  "riamento": 29207,
  "rian": 6516,
  "riana": 12896,
  "riando": 27079,
  "riano": 9721,
  "rianos": 31002,
  "riar": 16448,
  "rias": 1423,
  "riaÃ§Ã£o": 13951,
  "riaÃ§Ãµes": 43462,
  "rib": 47115,
  "ribu": 1072,
  "ribuiÃ§Ã£o": 19704,
  "ric": 1758,
  "rica": 8460,
  "ricas": 22936,
  "rich": 6700,
  "rick": 14535,
  "rico": 7466,
  "ricos": 15527,
  "rict": 39093,
  "ricular": 31896,
  "riculares": 48173,
  "rid": 4428,
  "rida": 13824,
  "ridas": 30220,
  "ride": 38236,
  "ridge": 14994,
  "rido": 9747,
  "ridos": 31099,
  "rie": 8794,
  "riedade": 30713,
  "riel": 33281,
  "rier": 16941,
  "ries": 21729,
  "rig": 1023,
  "riga": 7097,
  "rigado": 45753,
  "right": 10324,
  "rigo": 27826,
  "rigor": 30049,
  "rik": 25905,
  "rika": 45801,
  "ril": 991,
  "rilha": 2994,
  "rilhante": 40472,
  "rilho": 32355,
  "rill": 21600,
  "riller": 28008,
  "rillo": 29144,
  "rim": 3233,
  "rimento": 3634,
  "rimentos": 21748,
  "rimo": 13094,
  "rin": 1577,
  "rina": 13181,
  "rinaÃ§Ã£o": 20199,
  "rincha": 43475,
  "rindo": 11384,
  "rine": 38235,
  "ring": 9840,
  "rington": 38828,
  "rinha": 11176,
  "rinhas": 25481,
  "rinho": 6909,
  "rinhos": 5487,
  "rini": 34250,
  "rinista": 36899,
  "rink": 37536,
  "rino": 14986,
  "rinos": 11677,
  "rio": 590,
  "rion": 17621,
  "rionais": 46339,
  "rional": 20811,
  "rios": 1518,
  "riota": 17846,
  "riotas": 25705,
  "rip": 24296,
  "riqu": 15149,
  "rique": 3217,
  "rir": 36884,
  "ris": 1141,
  "rise": 9114,
  "rish": 17553,
  "rishna": 34444,
  "rision": 13293,
  "rismo": 34749,
  "riso": 19688,
  "rison": 35206,
  "riss": 31446,
  "rissa": 30611,
  "risse": 47814,
  "rist": 2478,
  "rista": 5063,
  "ristas": 23517,
  "riste": 41942,
  "risto": 3330,
  "ristol": 28836,
  "ristÃ£o": 34488,
  "rit": 1394,
  "rita": 8148,
  "ritais": 39618,
  "rital": 17917,
  "ritano": 46407,
  "ritanos": 39177,
  "ritas": 23790,
  "rite": 26213,
  "ritm": 17532,
  "rito": 1075,
  "ritos": 5346,
  "rity": 25965,
  "ritz": 20971,
  "ritÃ¢n": 1966,
  "ritÃ¢nia": 30693,
  "rium": 49951,
  "rival": 25189,
  "rive": 15669,
  "rix": 15668,
  "riz": 1660,
  "riza": 44838,
  "rizada": 30414,
  "rizado": 23684,
  "rizados": 33394,
  "rizar": 43638,
  "rizaÃ§Ã£o": 28145,
  "rizio": 48904,
  "rizona": 16747,
  "rizou": 43370,
  "rizz": 46313,
  "ro": 288,
  "road": 34773,
  "rob": 44159,
  "roca": 42187,
  "rock": 13134,
  "roco": 9002,
  "rocos": 11394,
  "rod": 14775,
  "rodite": 30523,
  "roe": 19717,
  "roes": 37494,
  "roga": 25207,
  "roid": 16832,
  "rol": 3208,
  "rola": 14745,
  "rolas": 28454,
  "roldo": 21754,
  "roll": 19228,
  "rom": 3522,
  "roma": 17836,
  "romana": 32634,
  "romano": 42624,
  "rome": 4933,
  "romisso": 46901,
  "romo": 12881,
  "romos": 39539,
  "ron": 1946,
  "rona": 33679,
  "rone": 19467,
  "rones": 25533,
  "roni": 33726,
  "rono": 35725,
  "rons": 22224,
  "ronze": 5948,
  "ronÃ©sia": 47619,
  "room": 34082,
  "rop": 7872,
  "rope": 44238,
  "ropo": 18342,
  "roqu": 12648,
  "roquial": 16586,
  "ror": 4579,
  "rores": 47727,
  "rorregiÃ£o": 34936,
  "ros": 568,
  "rosa": 11795,
  "rose": 21323,
  "roso": 6149,
  "rosoft": 9070,
  "ross": 7409,
  "rossel": 46329,
  "rossense": 32343,
  "rosso": 6106,
  "rossover": 27013,
  "rost": 27396,
  "rosÃ£o": 16621,
  "rot": 40264,
  "rota": 21370,
  "rote": 26679,
  "rotes": 29303,
  "rou": 856,
  "rouca": 31702,
  "roud": 43733,
  "rough": 19944,
  "roughs": 38788,
  "round": 17114,
  "roup": 8484,
  "roupa": 46810,
  "roupilha": 28230,
  "rov": 17628,
  "row": 11823,
  "roy": 31740,
  "rroga": 27914,
  "rs": 20058,
  "rsula": 44565,
  "rt": 23928,
  "ru": 505,
  "rua": 46877,
  "rud": 10464,
  "rudÃªncia": 26992,
  "rum": 6829,
  "run": 20929,
  "runner": 37980,
  "runs": 30068,
  "rup": 5285,
  "rupa": 11004,
  "rupamento": 35341,
  "rupar": 38425,
  "rupo": 3346,
  "rupÃ§Ã£o": 6286,
  "rupÃ§Ãµes": 20807,
  "rus": 2952,
  "rush": 24096,
  "russ": 33048,
  "russa": 48322,
  "russiana": 43551,
  "rust": 24787,
  "rut": 31241,
  "rute": 34888,
  "ruz": 1851,
  "ry": 1504,
  "ryn": 39213,
  "rypton": 25346,
  "rys": 27592,
  "ryu": 37901,
  "rÃ¡": 784,
  "rÃ¡f": 2305,
  "rÃ¡fica": 3475,
  "rÃ¡ficas": 7285,
  "rÃ¡fico": 3578,
  "rÃ¡ficos": 6340,
  "rÃ¡gio": 14168,
  "rÃ¡ria": 12531,
  "rÃ¡s": 10160,
  "rÃ¡tica": 7827,
  "rÃ¡ticas": 18393,
  "rÃ¡tico": 7227,
  "rÃ¡ticos": 21269,
  "rÃ¡ul": 17797,
  "rÃ¡vel": 49735,
  "rÃ¢ncia": 34208,
  "rÃ¢neo": 8941,
  "rÃ£": 29657,
  "rÃ£o": 1872,
  "rÃ©": 2684,
  "rÃ©al": 43584,
  "rÃ©cia": 6147,
  "rÃ©d": 35276,
  "rÃ©dito": 27100,
  "rÃ©ditos": 33069,
  "rÃ©dÃ©ric": 44624,
  "rÃ©s": 5886,
  "rÃ©sci": 18163,
  "rÃ©scimo": 21968,
  "rÃ©scimos": 42274,
  "rÃ³": 11491,
  "rÃ³p": 17945,
  "rÃ³pica": 41899,
  "rÃ³picas": 49930,
  "rÃ³pole": 26196,
  "rÃ³sio": 31998,
  "rÃ´": 33310,
  "rÃµes": 5185,
  "rÃ¶": 35378,
  "rÃº": 32284,
  "rÃŃ": 3326,
  "rÃŃculo": 18032,
  "rÃŃculos": 45247,
  "rÃŃdates": 41723,
  "rÃŃf": 44292,
  "rÃŃguez": 22024,
  "rÃŃn": 24050,
  "rÃŃveis": 20353,
  "rÃŃvel": 10058,
  "s": 83,
  "sa": 495,
  "sacerdo": 50112,
  "sacos": 34945,
  "sada": 20796,
  "sadas": 30449,
  "sado": 13980,
  "sados": 33178,
  "sagra": 47301,
  "sai": 36216,
  "sais": 19336,
  "sal": 10441,
  "sala": 35659,
  "sam": 25587,
  "san": 21757,
  "sand": 8656,
  "sando": 31807,
  "sandra": 39832,
  "sandu": 23005,
  "sangue": 48267,
  "santo": 32779,
  "sar": 8801,
  "saro": 18641,
  "sas": 1587,
  "sat": 30161,
  "sau": 20240,
  "sauro": 35269,
  "sauros": 34178,
  "sava": 33130,
  "saw": 46038,
  "sax": 22309,
  "saxÃ£o": 50075,
  "saxÃµes": 48573,
  "say": 21613,
  "sch": 12471,
  "sche": 16874,
  "schild": 35883,
  "sci": 46940,
  "scope": 33056,
  "se": 357,
  "sea": 10457,
  "seas": 43667,
  "seca": 9526,
  "secre": 19021,
  "secretÃ¡rio": 25990,
  "sed": 38381,
  "sede": 19354,
  "see": 43723,
  "sega": 35697,
  "segu": 989,
  "segunda": 29402,
  "segundo": 19983,
  "sei": 15793,
  "sein": 24388,
  "seiro": 49539,
  "seis": 7570,
  "sel": 10897,
  "self": 33484,
  "selha": 27236,
  "seller": 32676,
  "sem": 6843,
  "semana": 46944,
  "semelhante": 48361,
  "sempre": 40127,
  "sen": 2711,
  "senal": 13911,
  "sendo": 16382,
  "sens": 28684,
  "sent": 20220,
  "seppe": 16679,
  "sequ": 6419,
  "sequentemente": 17592,
  "ser": 11815,
  "sera": 48156,
  "seram": 11690,
  "serra": 33523,
  "serrat": 50085,
  "serv": 43663,
  "ses": 1932,
  "sese": 49901,
  "set": 7620,
  "sete": 19458,
  "setts": 11970,
  "seu": 2484,
  "seudo": 36112,
  "seus": 10732,
  "sev": 36273,
  "sex": 5904,
  "sexuais": 26925,
  "sexual": 26935,
  "sey": 7787,
  "sh": 3177,
  "sha": 22469,
  "share": 47584,
  "she": 32548,
  "shi": 30775,
  "ship": 6762,
  "shire": 14558,
  "sho": 23737,
  "show": 13114,
  "shows": 31829,
  "si": 12331,
  "sia": 1948,
  "sias": 16910,
  "sic": 20849,
  "sico": 31806,
  "side": 33919,
  "sie": 40069,
  "sig": 43406,
  "sil": 17417,
  "sim": 17585,
  "simples": 47464,
  "sin": 15397,
  "sinc": 50015,
  "sindical": 44728,
  "sing": 34265,
  "single": 4568,
  "singles": 12064,
  "sini": 36481,
  "sint": 43557,
  "sior": 34529,
  "sis": 21700,
  "sistema": 28846,
  "sit": 39940,
  "sitcom": 48874,
  "site": 11385,
  "sites": 32163,
  "sius": 38411,
  "sk": 11222,
  "ska": 33650,
  "ski": 10256,
  "sky": 12298,
  "so": 412,
  "sob": 27774,
  "sobre": 19462,
  "social": 20380,
  "soft": 49390,
  "software": 31549,
  "sohn": 37250,
  "sol": 13249,
  "sola": 39699,
  "sole": 47185,
  "solo": 45737,
  "som": 21220,
  "soma": 41948,
  "somente": 42536,
  "son": 853,
  "song": 46377,
  "sons": 31616,
  "sonÃ¢ncia": 20112,
  "sor": 16819,
  "sores": 28790,
  "sos": 1494,
  "sou": 11811,
  "soul": 43453,
  "sov": 40630,
  "sp": 33201,
  "span": 28160,
  "spin": 31083,
  "ss": 36078,
  "sse": 34907,
  "ssel": 39277,
  "sseldorf": 44830,
  "sson": 23738,
  "st": 7613,
  "sta": 8943,
  "stag": 46574,
  "stal": 20738,
  "stand": 41890,
  "star": 38454,
  "status": 21924,
  "ste": 28927,
  "stein": 27016,
  "sten": 38922,
  "ster": 8477,
  "stic": 45925,
  "ston": 36242,
  "stone": 33409,
  "stra": 38338,
  "streaming": 34342,
  "style": 36039,
  "stÃŃcio": 50157,
  "su": 2665,
  "sua": 19950,
  "sub": 13110,
  "subs": 28974,
  "substitu": 45669,
  "suced": 10386,
  "sucedida": 19411,
  "sucedidas": 40946,
  "sucedido": 20940,
  "sucedidos": 36913,
  "sud": 32921,
  "sudoeste": 48350,
  "sui": 45706,
  "sul": 16400,
  "suma": 45216,
  "sun": 24274,
  "sung": 24544,
  "sup": 29925,
  "super": 21428,
  "sur": 14422,
  "sus": 31121,
  "sworth": 46792,
  "sy": 18727,
  "sÃ£o": 1123,
  "sÃ©": 28159,
  "sÃ©culo": 26483,
  "sÃ©rie": 22907,
  "sÃ©tia": 42177,
  "sÃ³": 32113,
  "sÃŃ": 19480,
  "sÃŃmbolo": 47990,
  "sÃŃntese": 30709,
  "t": 84,
  "ta": 285,
  "table": 45550,
  "taca": 27673,
  "tacular": 22015,
  "taculares": 45927,
  "tad": 3424,
  "tada": 1466,
  "tadas": 2847,
  "tado": 615,
  "tador": 5856,
  "tadora": 13656,
  "tadoras": 22991,
  "tadores": 2783,
  "tados": 828,
  "tadt": 18810,
  "tafogo": 10442,
  "taforma": 39316,
  "tag": 17734,
  "tage": 44470,
  "tagem": 9753,
  "tagens": 13378,
  "tagon": 3849,
  "tah": 17119,
  "tai": 35660,
  "tain": 5267,
  "tais": 3695,
  "take": 43834,
  "taker": 25773,
  "tal": 606,
  "tala": 37008,
  "talas": 25646,
  "tale": 4632,
  "talegre": 29744,
  "talgia": 38307,
  "talha": 2213,
  "tali": 35480,
  "talk": 39204,
  "talm": 43261,
  "talo": 19140,
  "talvez": 34816,
  "tam": 2660,
  "tama": 38926,
  "tamb": 17646,
  "tambul": 18970,
  "tambÃ©m": 7079,
  "tamente": 1213,
  "tamento": 1888,
  "tamentos": 16613,
  "tan": 2210,
  "tana": 12725,
  "tanas": 38029,
  "tanato": 33773,
  "tando": 1655,
  "tane": 6482,
  "taneamente": 8777,
  "tanha": 6236,
  "tani": 29936,
  "tania": 45829,
  "tano": 19148,
  "tanol": 23073,
  "tanos": 30105,
  "tant": 3727,
  "tante": 1489,
  "tantes": 4285,
  "tantino": 40236,
  "tantismo": 27385,
  "tanto": 1732,
  "tany": 43274,
  "tapa": 37129,
  "tape": 27709,
  "tappen": 37130,
  "taque": 24527,
  "tar": 704,
  "tara": 18045,
  "taram": 2907,
  "tarco": 30411,
  "tard": 49196,
  "tarda": 43071,
  "tare": 44577,
  "tarefa": 34669,
  "tarem": 19379,
  "tares": 10021,
  "tari": 27394,
  "taria": 3846,
  "tariam": 32254,
  "tarina": 46047,
  "taro": 24846,
  "taros": 34140,
  "tars": 35203,
  "taru": 15895,
  "tary": 36186,
  "tarÃ¡": 39054,
  "tas": 595,
  "tase": 20999,
  "tasia": 38346,
  "tasse": 11417,
  "tassem": 19974,
  "tat": 37128,
  "tata": 14567,
  "tation": 22799,
  "tativa": 50100,
  "tativo": 34726,
  "tato": 32473,
  "tava": 4804,
  "tavam": 12490,
  "taxa": 47665,
  "taz": 50017,
  "taÃ§a": 48082,
  "taÃ§Ã£o": 1175,
  "taÃ§Ãµes": 4445,
  "taÃŃ": 33150,
  "tbol": 46726,
  "tch": 15029,
  "te": 313,
  "tea": 39620,
  "tead": 45029,
  "teada": 40776,
  "teado": 23998,
  "teaser": 49595,
  "teatro": 45150,
  "teau": 15074,
  "tebol": 1634,
  "tebra": 16796,
  "tebrados": 18963,
  "tebras": 40822,
  "tec": 10208,
  "teca": 12942,
  "tecas": 20007,
  "tech": 27893,
  "tecismo": 33018,
  "tecl": 43111,
  "tecnia": 42743,
  "tecnologia": 40849,
  "tective": 44879,
  "ted": 3722,
  "tedra": 28443,
  "tedral": 6099,
  "tee": 36982,
  "teen": 25178,
  "teg": 1643,
  "tega": 35138,
  "tego": 43255,
  "tegoria": 10184,
  "tei": 23803,
  "teia": 14752,
  "tein": 5600,
  "teio": 20713,
  "teira": 7832,
  "teiras": 12691,
  "teiro": 3108,
  "teiros": 11369,
  "teis": 6177,
  "tek": 46103,
  "tel": 2059,
  "tela": 6191,
  "telar": 26535,
  "telas": 40121,
  "telaÃ§Ã£o": 24065,
  "telaÃ§Ãµes": 49359,
  "tele": 25268,
  "tell": 22845,
  "tella": 20995,
  "tello": 30656,
  "telo": 3024,
  "tels": 48385,
  "tem": 2113,
  "tema": 11382,
  "temala": 20901,
  "tematicamente": 37481,
  "temburgo": 33038,
  "temi": 43081,
  "temis": 33093,
  "temon": 40470,
  "temp": 35196,
  "tempo": 10273,
  "temporada": 20324,
  "temporal": 46767,
  "tempos": 38758,
  "ten": 1554,
  "tena": 27787,
  "tenberg": 22887,
  "tenc": 17775,
  "tence": 22898,
  "tencente": 46459,
  "tencourt": 23020,
  "tended": 21469,
  "tendo": 7888,
  "tenente": 25791,
  "tenes": 39961,
  "tenha": 45238,
  "tenimento": 10413,
  "teno": 45371,
  "tens": 2096,
  "tense": 27955,
  "tenses": 44982,
  "tenstein": 31007,
  "tensÃ£o": 14486,
  "tent": 10632,
  "tente": 6331,
  "tentes": 10087,
  "tentÃ¡vel": 27448,
  "tenÃ§Ã£o": 2501,
  "tenÃ§Ãµes": 29912,
  "teo": 18568,
  "teor": 8196,
  "teoria": 36708,
  "tep": 37525,
  "ter": 487,
  "tera": 5198,
  "terais": 19096,
  "teral": 16277,
  "teram": 15331,
  "terana": 21258,
  "terano": 14409,
  "teranos": 15251,
  "terapia": 17443,
  "teras": 22546,
  "terback": 21287,
  "terceira": 47604,
  "terceiro": 44696,
  "terdÃ£": 46236,
  "terdÃ£o": 33986,
  "teres": 15898,
  "teria": 9064,
  "teriais": 49810,
  "terial": 16535,
  "terias": 18037,
  "teridade": 30883,
  "terio": 28913,
  "terior": 1605,
  "teriores": 6195,
  "teriormente": 2186,
  "terman": 35537,
  "termin": 10933,
  "termo": 38384,
  "tern": 5769,
  "terna": 2887,
  "ternal": 39606,
  "ternidade": 15600,
  "terno": 16420,
  "ternos": 34755,
  "tero": 5356,
  "terol": 35897,
  "teron": 47060,
  "terona": 30048,
  "teros": 10984,
  "terra": 2668,
  "terres": 45099,
  "terri": 44639,
  "terro": 28853,
  "terror": 38104,
  "ters": 6280,
  "terson": 32478,
  "tery": 19484,
  "tes": 678,
  "tese": 38768,
  "teto": 13107,
  "teu": 4479,
  "teur": 26794,
  "teve": 17272,
  "tex": 13450,
  "texto": 36042,
  "tez": 31490,
  "teza": 8182,
  "tezas": 33437,
  "tford": 42283,
  "th": 1064,
  "tha": 17497,
  "thal": 40832,
  "tham": 22285,
  "thampton": 30403,
  "than": 37865,
  "the": 6579,
  "then": 44416,
  "theon": 42880,
  "ther": 5295,
  "therford": 38553,
  "therland": 38479,
  "thern": 18939,
  "thers": 14481,
  "thing": 14837,
  "tho": 32349,
  "thon": 19674,
  "thor": 17188,
  "thumb": 35205,
  "thur": 7799,
  "thus": 44753,
  "thy": 12294,
  "ti": 321,
  "tia": 2997,
  "tiam": 25133,
  "tian": 17059,
  "tiano": 46229,
  "tias": 12111,
  "tiba": 7005,
  "tibilidade": 16182,
  "tic": 514,
  "tica": 603,
  "ticais": 17721,
  "tical": 9827,
  "ticamente": 3215,
  "ticas": 1001,
  "tice": 12735,
  "ticeiro": 49267,
  "tices": 19071,
  "ticia": 37736,
  "ticias": 47006,
  "ticidade": 21010,
  "ticidas": 37288,
  "ticismo": 20979,
  "tick": 29141,
  "tico": 831,
  "ticos": 1186,
  "tics": 12293,
  "ticul": 37503,
  "ticultura": 44060,
  "ticut": 22274,
  "tid": 7643,
  "tida": 3708,
  "tidas": 7217,
  "tido": 1728,
  "tidores": 11913,
  "tidos": 5028,
  "tidÃ£o": 7951,
  "tidÃµes": 46572,
  "tie": 11766,
  "tien": 35403,
  "tienne": 29755,
  "tier": 16089,
  "tiere": 49181,
  "tiers": 36923,
  "ties": 16546,
  "tif": 2134,
  "tific": 3816,
  "tifica": 24277,
  "tificada": 46393,
  "tificado": 7702,
  "tificaÃ§Ã£o": 6733,
  "tificaÃ§Ãµes": 13575,
  "tificial": 46387,
  "tiful": 21061,
  "tify": 28407,
  "tigo": 11798,
  "tiguar": 28688,
  "tik": 39281,
  "til": 770,
  "tila": 17499,
  "tilaÃ§Ã£o": 25850,
  "tilde": 20955,
  "tile": 21398,
  "tileno": 28671,
  "tilh": 4173,
  "tilha": 21179,
  "tilharia": 21574,
  "tilhas": 38727,
  "tilheiro": 47024,
  "tilho": 32848,
  "tilidade": 10141,
  "till": 26455,
  "tillo": 45231,
  "tilo": 17249,
  "tim": 2821,
  "tima": 2969,
  "timas": 5481,
  "time": 12986,
  "timento": 13323,
  "timentos": 23960,
  "timer": 48586,
  "timo": 3609,
  "timore": 19793,
  "timos": 9667,
  "timus": 44710,
  "tin": 1349,
  "tina": 3912,
  "tinais": 41080,
  "tinal": 25374,
  "tinas": 28093,
  "tindo": 11311,
  "tine": 49174,
  "ting": 8989,
  "tinga": 14441,
  "tinguetÃ¡": 36052,
  "tinha": 14067,
  "tinham": 32294,
  "tinho": 5473,
  "tini": 19790,
  "tininga": 30979,
  "tino": 4411,
  "tinos": 32406,
  "tins": 20113,
  "tinum": 48615,
  "tinÃªncia": 42296,
  "tio": 3989,
  "tion": 1212,
  "tiona": 12832,
  "tional": 3983,
  "tionale": 44856,
  "tionary": 42637,
  "tions": 6484,
  "tios": 11003,
  "tip": 42669,
  "tipo": 6458,
  "tipos": 12607,
  "tique": 16090,
  "tiques": 49315,
  "tir": 892,
  "tira": 19370,
  "tiram": 6128,
  "tires": 21105,
  "tiro": 23147,
  "tis": 4687,
  "tisa": 41531,
  "tishow": 30846,
  "tismo": 9185,
  "tista": 10424,
  "tistas": 15418,
  "tit": 16625,
  "tita": 27214,
  "titas": 42998,
  "tite": 16064,
  "tito": 47729,
  "titu": 691,
  "titucional": 25496,
  "titude": 3715,
  "titudes": 9394,
  "tituiÃ§Ã£o": 19788,
  "tituras": 34648,
  "tiu": 1991,
  "tius": 33466,
  "tiv": 601,
  "tiva": 688,
  "tivada": 34032,
  "tivado": 25715,
  "tivais": 10276,
  "tivamente": 1684,
  "tivar": 36489,
  "tivas": 1371,
  "tivaÃ§Ã£o": 12566,
  "tive": 6995,
  "tivelmente": 43161,
  "tiveram": 14543,
  "tives": 29717,
  "tividade": 3483,
  "tividades": 11289,
  "tivismo": 13520,
  "tivista": 18676,
  "tivistas": 25981,
  "tivo": 819,
  "tivos": 1198,
  "tivou": 44913,
  "tiz": 2237,
  "tiza": 9384,
  "tizada": 9414,
  "tizadas": 25896,
  "tizado": 8009,
  "tizados": 19058,
  "tizam": 36434,
  "tizando": 22390,
  "tizar": 12306,
  "tizaram": 38074,
  "tizaÃ§Ã£o": 7145,
  "tizaÃ§Ãµes": 42367,
  "tizou": 13573,
  "tiÃ£o": 35626,
  "tiÃ§Ã£o": 8609,
  "tiÃ§Ãµes": 24942,
  "tl": 49037,
  "tland": 27354,
  "tle": 3878,
  "tles": 36451,
  "tman": 26230,
  "tn": 6481,
  "tner": 34591,
  "tners": 43088,
  "tnik": 29450,
  "to": 312,
  "toc": 7283,
  "tock": 22492,
  "tocol": 15128,
  "tocolmo": 17301,
  "tocolo": 12308,
  "tod": 9321,
  "todas": 34940,
  "todo": 3148,
  "todos": 5242,
  "tografia": 22322,
  "tois": 48885,
  "tol": 12459,
  "tola": 18473,
  "tolas": 41483,
  "tole": 19156,
  "tolicismo": 14223,
  "tolo": 14452,
  "tologia": 17476,
  "tologias": 45194,
  "tolome": 13680,
  "tolomeu": 15152,
  "tolos": 17198,
  "tom": 19847,
  "toma": 47182,
  "tomi": 44688,
  "tomia": 14893,
  "tomo": 28490,
  "ton": 994,
  "tona": 12472,
  "tonas": 36777,
  "tone": 5556,
  "tones": 16727,
  "toni": 37584,
  "tonia": 48025,
  "tonismo": 43312,
  "tono": 8807,
  "tons": 28339,
  "toon": 16656,
  "top": 10552,
  "topia": 30279,
  "tops": 40965,
  "tor": 552,
  "tora": 3602,
  "torado": 8389,
  "toral": 22556,
  "toras": 28401,
  "tore": 20423,
  "tores": 1202,
  "tori": 23414,
  "toria": 5916,
  "toriais": 12741,
  "torial": 6774,
  "toriamente": 44872,
  "tories": 49477,
  "toril": 26216,
  "torio": 28949,
  "torm": 39285,
  "torno": 38500,
  "tors": 13277,
  "tory": 16577,
  "torze": 19718,
  "tos": 502,
  "tosa": 23188,
  "tose": 43837,
  "toso": 26884,
  "tosos": 25854,
  "tosterona": 34994,
  "total": 39042,
  "tou": 776,
  "tour": 41785,
  "tov": 24718,
  "tow": 42477,
  "town": 12872,
  "tox": 37218,
  "tr": 428,
  "tra": 559,
  "trabal": 24629,
  "trabalho": 37425,
  "track": 38804,
  "trada": 16389,
  "tradas": 44795,
  "trado": 7864,
  "trados": 20882,
  "traduÃ§Ã£o": 42866,
  "tragem": 8229,
  "tragens": 21541,
  "trais": 35832,
  "tral": 6792,
  "tram": 6525,
  "tran": 28276,
  "trand": 27977,
  "trando": 36217,
  "trans": 10048,
  "transm": 34925,
  "transpor": 36228,
  "trar": 14589,
  "tras": 946,
  "trasburgo": 30861,
  "trato": 11052,
  "tratos": 24314,
  "travÃ©s": 10093,
  "traÃ§Ã£o": 9043,
  "tre": 1278,
  "tream": 10497,
  "treaming": 18700,
  "tree": 49491,
  "treet": 6851,
  "treia": 29465,
  "treinador": 49199,
  "trem": 6368,
  "tremadura": 32321,
  "tres": 11717,
  "tri": 2651,
  "tria": 1644,
  "triar": 7672,
  "triarca": 44328,
  "trias": 7814,
  "tric": 9930,
  "trica": 12191,
  "tricamente": 45553,
  "tricas": 23695,
  "trice": 37252,
  "trich": 27963,
  "trick": 21117,
  "trico": 14514,
  "tricos": 25344,
  "trie": 42399,
  "trike": 37843,
  "trin": 44304,
  "trina": 15868,
  "tring": 11208,
  "trio": 16216,
  "trip": 30515,
  "tris": 29514,
  "trista": 33228,
  "trito": 18674,
  "trix": 48177,
  "triz": 3885,
  "trizes": 13952,
  "tro": 680,
  "troem": 35508,
  "trogo": 45040,
  "troit": 15826,
  "trom": 44850,
  "tron": 6061,
  "tronco": 43841,
  "trong": 13317,
  "tronic": 21602,
  "tronics": 48562,
  "trons": 9346,
  "trop": 11144,
  "tropicais": 27853,
  "tropical": 15531,
  "tropolita": 4839,
  "tropolitana": 7192,
  "tros": 662,
  "trospec": 21526,
  "trou": 4246,
  "troump": 42441,
  "tru": 631,
  "trum": 30023,
  "trus": 21116,
  "trutura": 31107,
  "try": 21671,
  "trÃ¡": 27412,
  "trÃ¡s": 3596,
  "trÃ£o": 21975,
  "trÃªs": 22690,
  "trÃ³": 4113,
  "trÃ³i": 15349,
  "trÃ³leo": 7213,
  "trÃ³p": 28895,
  "trÃ³podes": 33698,
  "trÃ³pole": 18840,
  "trÃ³poles": 44219,
  "trÃ³polis": 44058,
  "trÃ´": 9342,
  "trÃ¶m": 44638,
  "trÃŃcia": 39500,
  "ts": 1442,
  "tsal": 16301,
  "tsburgh": 20688,
  "tsch": 21310,
  "tsche": 25834,
  "tsdam": 45882,
  "tsin": 37587,
  "tsk": 24774,
  "tski": 39672,
  "tsky": 22580,
  "tsu": 12100,
  "tt": 2318,
  "tta": 6886,
  "ttan": 14875,
  "tte": 5982,
  "ttemberg": 28351,
  "tten": 11416,
  "tter": 10431,
  "tti": 7043,
  "ttingen": 40746,
  "ttle": 47621,
  "tto": 6753,
  "ttom": 42113,
  "tton": 22198,
  "tts": 48437,
  "tty": 24549,
  "tu": 345,
  "tua": 4471,
  "tuag": 43352,
  "tuais": 4510,
  "tual": 2109,
  "tualizado": 37335,
  "tualmente": 2463,
  "tuamente": 24206,
  "tuando": 27227,
  "tuas": 12253,
  "tuba": 14073,
  "tube": 21201,
  "tuber": 35535,
  "tubro": 1348,
  "tud": 22471,
  "tude": 4397,
  "tudes": 28789,
  "tudo": 4654,
  "tugal": 1687,
  "tugu": 1267,
  "tul": 30143,
[...]
